{
  "<BOS>": 0,
  "<EOS>": 1,
  "<PAD>": 2,
  "<UNK>": 3,
  " ": 4,
  "!": 5,
  "\"": 6,
  "#": 7,
  "$": 8,
  "%": 9,
  "&": 10,
  "'": 11,
  "(": 12,
  ")": 13,
  "*": 14,
  "+": 15,
  ",": 16,
  "-": 17,
  ".": 18,
  "/": 19,
  "0": 20,
  "1": 21,
  "2": 22,
  "3": 23,
  "4": 24,
  "5": 25,
  "6": 26,
  "7": 27,
  "8": 28,
  "9": 29,
  ":": 30,
  ";": 31,
  "<": 32,
  "=": 33,
  ">": 34,
  "?": 35,
  "@": 36,
  "A": 37,
  "B": 38,
  "C": 39,
  "D": 40,
  "E": 41,
  "F": 42,
  "G": 43,
  "H": 44,
  "I": 45,
  "J": 46,
  "K": 47,
  "L": 48,
  "M": 49,
  "N": 50,
  "O": 51,
  "P": 52,
  "Q": 53,
  "R": 54,
  "S": 55,
  "T": 56,
  "U": 57,
  "V": 58,
  "W": 59,
  "X": 60,
  "Y": 61,
  "Z": 62,
  "[": 63,
  "\\": 64,
  "]": 65,
  "^": 66,
  "_": 67,
  "`": 68,
  "a": 69,
  "b": 70,
  "c": 71,
  "d": 72,
  "e": 73,
  "f": 74,
  "g": 75,
  "h": 76,
  "i": 77,
  "j": 78,
  "k": 79,
  "l": 80,
  "m": 81,
  "n": 82,
  "o": 83,
  "p": 84,
  "q": 85,
  "r": 86,
  "s": 87,
  "t": 88,
  "u": 89,
  "v": 90,
  "w": 91,
  "x": 92,
  "y": 93,
  "z": 94,
  "{": 95,
  "|": 96,
  "}": 97,
  "~": 98,
  "ª": 99,
  "µ": 100,
  "º": 101,
  "À": 102,
  "Á": 103,
  "Â": 104,
  "Ã": 105,
  "Ä": 106,
  "Å": 107,
  "Æ": 108,
  "Ç": 109,
  "È": 110,
  "É": 111,
  "Ê": 112,
  "Ë": 113,
  "Ì": 114,
  "Í": 115,
  "Î": 116,
  "Ï": 117,
  "Ð": 118,
  "Ñ": 119,
  "Ò": 120,
  "Ó": 121,
  "Ô": 122,
  "Õ": 123,
  "Ö": 124,
  "Ø": 125,
  "Ù": 126,
  "Ú": 127,
  "Û": 128,
  "Ü": 129,
  "Ý": 130,
  "Þ": 131,
  "ß": 132,
  "à": 133,
  "á": 134,
  "â": 135,
  "ã": 136,
  "ä": 137,
  "å": 138,
  "æ": 139,
  "ç": 140,
  "è": 141,
  "é": 142,
  "ê": 143,
  "ë": 144,
  "ì": 145,
  "í": 146,
  "î": 147,
  "ï": 148,
  "ð": 149,
  "ñ": 150,
  "ò": 151,
  "ó": 152,
  "ô": 153,
  "õ": 154,
  "ö": 155,
  "ø": 156,
  "ù": 157,
  "ú": 158,
  "û": 159,
  "ü": 160,
  "ý": 161,
  "þ": 162,
  "ÿ": 163,
  "θ": 164,
  "AB": 165,
  "AN": 166,
  "AR": 167,
  "AU": 168,
  "Ac": 169,
  "Ad": 170,
  "Af": 171,
  "Al": 172,
  "An": 173,
  "Ap": 174,
  "Ar": 175,
  "As": 176,
  "At": 177,
  "Au": 178,
  "BE": 179,
  "Ba": 180,
  "Be": 181,
  "Bi": 182,
  "Bo": 183,
  "Br": 184,
  "Bu": 185,
  "By": 186,
  "CA": 187,
  "CE": 188,
  "CH": 189,
  "CI": 190,
  "CM": 191,
  "CP": 192,
  "Ca": 193,
  "Ch": 194,
  "Cl": 195,
  "Co": 196,
  "Cr": 197,
  "Cu": 198,
  "DT": 199,
  "DU": 200,
  "De": 201,
  "Di": 202,
  "Do": 203,
  "EL": 204,
  "EN": 205,
  "EO": 206,
  "ER": 207,
  "ES": 208,
  "ET": 209,
  "Ea": 210,
  "Ei": 211,
  "El": 212,
  "En": 213,
  "Eq": 214,
  "Es": 215,
  "Eu": 216,
  "Ev": 217,
  "Ex": 218,
  "Fa": 219,
  "Fe": 220,
  "Fi": 221,
  "Fo": 222,
  "Fr": 223,
  "Fu": 224,
  "GL": 225,
  "GR": 226,
  "Ga": 227,
  "Ge": 228,
  "Gi": 229,
  "Go": 230,
  "Gr": 231,
  "HA": 232,
  "HE": 233,
  "Ha": 234,
  "He": 235,
  "Hi": 236,
  "Ho": 237,
  "IA": 238,
  "IC": 239,
  "II": 240,
  "IN": 241,
  "IO": 242,
  "IS": 243,
  "IU": 244,
  "Id": 245,
  "If": 246,
  "Im": 247,
  "In": 248,
  "Ir": 249,
  "Is": 250,
  "It": 251,
  "Iw": 252,
  "Ja": 253,
  "Jo": 254,
  "KE": 255,
  "KI": 256,
  "Ka": 257,
  "Ke": 258,
  "Ki": 259,
  "Ko": 260,
  "Ku": 261,
  "LA": 262,
  "LE": 263,
  "LI": 264,
  "LL": 265,
  "LO": 266,
  "LU": 267,
  "La": 268,
  "Le": 269,
  "Li": 270,
  "Lo": 271,
  "Lu": 272,
  "ME": 273,
  "MI": 274,
  "Ma": 275,
  "Me": 276,
  "Mi": 277,
  "Mo": 278,
  "Mu": 279,
  "My": 280,
  "NC": 281,
  "NE": 282,
  "NG": 283,
  "NI": 284,
  "NT": 285,
  "Na": 286,
  "Ne": 287,
  "No": 288,
  "Nu": 289,
  "OL": 290,
  "OM": 291,
  "ON": 292,
  "OR": 293,
  "Of": 294,
  "Om": 295,
  "On": 296,
  "Op": 297,
  "Or": 298,
  "Ou": 299,
  "PE": 300,
  "PS": 301,
  "Pa": 302,
  "Pe": 303,
  "Ph": 304,
  "Pi": 305,
  "Po": 306,
  "Pr": 307,
  "Qu": 308,
  "RD": 309,
  "RE": 310,
  "RI": 311,
  "RO": 312,
  "RU": 313,
  "Ra": 314,
  "Re": 315,
  "Ri": 316,
  "Ro": 317,
  "SD": 318,
  "SL": 319,
  "SO": 320,
  "ST": 321,
  "SU": 322,
  "SW": 323,
  "Sa": 324,
  "Sc": 325,
  "Se": 326,
  "Sh": 327,
  "Si": 328,
  "So": 329,
  "Sp": 330,
  "St": 331,
  "Su": 332,
  "Sy": 333,
  "TE": 334,
  "TH": 335,
  "TI": 336,
  "TR": 337,
  "Ta": 338,
  "Te": 339,
  "Th": 340,
  "Ti": 341,
  "To": 342,
  "Tr": 343,
  "UC": 344,
  "UE": 345,
  "UK": 346,
  "UL": 347,
  "US": 348,
  "Un": 349,
  "Us": 350,
  "VI": 351,
  "Va": 352,
  "Ve": 353,
  "Vo": 354,
  "WA": 355,
  "WP": 356,
  "Wa": 357,
  "We": 358,
  "Wh": 359,
  "Wi": 360,
  "Wo": 361,
  "Wr": 362,
  "Ya": 363,
  "Ye": 364,
  "Yo": 365,
  "aa": 366,
  "ab": 367,
  "ac": 368,
  "ad": 369,
  "af": 370,
  "ag": 371,
  "ah": 372,
  "ai": 373,
  "ak": 374,
  "al": 375,
  "am": 376,
  "an": 377,
  "ap": 378,
  "ar": 379,
  "as": 380,
  "at": 381,
  "au": 382,
  "av": 383,
  "aw": 384,
  "ax": 385,
  "ay": 386,
  "az": 387,
  "bF": 388,
  "bZ": 389,
  "ba": 390,
  "bb": 391,
  "bc": 392,
  "bd": 393,
  "be": 394,
  "bf": 395,
  "bg": 396,
  "bi": 397,
  "bj": 398,
  "bl": 399,
  "bm": 400,
  "bo": 401,
  "br": 402,
  "bs": 403,
  "bt": 404,
  "bu": 405,
  "by": 406,
  "ca": 407,
  "cc": 408,
  "cd": 409,
  "ce": 410,
  "ch": 411,
  "ci": 412,
  "ck": 413,
  "cl": 414,
  "co": 415,
  "cr": 416,
  "cs": 417,
  "ct": 418,
  "cu": 419,
  "cy": 420,
  "dV": 421,
  "da": 422,
  "dd": 423,
  "de": 424,
  "df": 425,
  "dg": 426,
  "dh": 427,
  "di": 428,
  "dj": 429,
  "dl": 430,
  "dm": 431,
  "dn": 432,
  "do": 433,
  "dp": 434,
  "dr": 435,
  "ds": 436,
  "dt": 437,
  "du": 438,
  "dv": 439,
  "dx": 440,
  "dy": 441,
  "ea": 442,
  "eb": 443,
  "ec": 444,
  "ed": 445,
  "ee": 446,
  "ef": 447,
  "eg": 448,
  "eh": 449,
  "ei": 450,
  "ek": 451,
  "el": 452,
  "em": 453,
  "en": 454,
  "eo": 455,
  "ep": 456,
  "eq": 457,
  "er": 458,
  "es": 459,
  "et": 460,
  "eu": 461,
  "ev": 462,
  "ew": 463,
  "ex": 464,
  "ey": 465,
  "fa": 466,
  "fe": 467,
  "ff": 468,
  "fi": 469,
  "fl": 470,
  "fo": 471,
  "fr": 472,
  "fs": 473,
  "ft": 474,
  "fu": 475,
  "fy": 476,
  "ga": 477,
  "gc": 478,
  "ge": 479,
  "gg": 480,
  "gh": 481,
  "gi": 482,
  "gl": 483,
  "gm": 484,
  "gn": 485,
  "go": 486,
  "gr": 487,
  "gs": 488,
  "gt": 489,
  "gu": 490,
  "gy": 491,
  "ha": 492,
  "hb": 493,
  "hc": 494,
  "hd": 495,
  "he": 496,
  "hf": 497,
  "hi": 498,
  "hl": 499,
  "hm": 500,
  "hn": 501,
  "ho": 502,
  "hr": 503,
  "hs": 504,
  "ht": 505,
  "hu": 506,
  "hy": 507,
  "ia": 508,
  "ib": 509,
  "ic": 510,
  "id": 511,
  "ie": 512,
  "if": 513,
  "ig": 514,
  "ii": 515,
  "ij": 516,
  "ik": 517,
  "il": 518,
  "im": 519,
  "in": 520,
  "io": 521,
  "ip": 522,
  "iq": 523,
  "ir": 524,
  "is": 525,
  "it": 526,
  "iu": 527,
  "iv": 528,
  "ix": 529,
  "iz": 530,
  "ja": 531,
  "je": 532,
  "jo": 533,
  "ju": 534,
  "ka": 535,
  "ke": 536,
  "ki": 537,
  "kl": 538,
  "kn": 539,
  "ko": 540,
  "ks": 541,
  "la": 542,
  "lb": 543,
  "lc": 544,
  "ld": 545,
  "le": 546,
  "lf": 547,
  "lg": 548,
  "li": 549,
  "lk": 550,
  "ll": 551,
  "lm": 552,
  "ln": 553,
  "lo": 554,
  "lp": 555,
  "lr": 556,
  "ls": 557,
  "lt": 558,
  "lu": 559,
  "lv": 560,
  "lw": 561,
  "ly": 562,
  "ma": 563,
  "mb": 564,
  "me": 565,
  "mi": 566,
  "ml": 567,
  "mm": 568,
  "mo": 569,
  "mp": 570,
  "ms": 571,
  "mu": 572,
  "my": 573,
  "na": 574,
  "nb": 575,
  "nc": 576,
  "nd": 577,
  "ne": 578,
  "nf": 579,
  "ng": 580,
  "nh": 581,
  "ni": 582,
  "nj": 583,
  "nk": 584,
  "nl": 585,
  "nm": 586,
  "nn": 587,
  "no": 588,
  "nr": 589,
  "ns": 590,
  "nt": 591,
  "nu": 592,
  "nv": 593,
  "ny": 594,
  "nz": 595,
  "oa": 596,
  "ob": 597,
  "oc": 598,
  "od": 599,
  "oe": 600,
  "of": 601,
  "og": 602,
  "oh": 603,
  "oi": 604,
  "oj": 605,
  "ok": 606,
  "ol": 607,
  "om": 608,
  "on": 609,
  "oo": 610,
  "op": 611,
  "or": 612,
  "os": 613,
  "ot": 614,
  "ou": 615,
  "ov": 616,
  "ow": 617,
  "ox": 618,
  "oy": 619,
  "pa": 620,
  "pe": 621,
  "ph": 622,
  "pi": 623,
  "pl": 624,
  "pm": 625,
  "po": 626,
  "pp": 627,
  "pr": 628,
  "ps": 629,
  "pt": 630,
  "pu": 631,
  "py": 632,
  "qq": 633,
  "qr": 634,
  "qu": 635,
  "ra": 636,
  "rb": 637,
  "rc": 638,
  "rd": 639,
  "re": 640,
  "rf": 641,
  "rg": 642,
  "rh": 643,
  "ri": 644,
  "rj": 645,
  "rk": 646,
  "rl": 647,
  "rm": 648,
  "rn": 649,
  "ro": 650,
  "rp": 651,
  "rr": 652,
  "rs": 653,
  "rt": 654,
  "ru": 655,
  "rv": 656,
  "rw": 657,
  "ry": 658,
  "rz": 659,
  "sa": 660,
  "sc": 661,
  "sd": 662,
  "se": 663,
  "sf": 664,
  "sh": 665,
  "si": 666,
  "sj": 667,
  "sk": 668,
  "sl": 669,
  "sm": 670,
  "sn": 671,
  "so": 672,
  "sp": 673,
  "sq": 674,
  "ss": 675,
  "st": 676,
  "su": 677,
  "sw": 678,
  "sy": 679,
  "sz": 680,
  "ta": 681,
  "tb": 682,
  "tc": 683,
  "te": 684,
  "tf": 685,
  "th": 686,
  "ti": 687,
  "tl": 688,
  "tm": 689,
  "tn": 690,
  "to": 691,
  "tr": 692,
  "ts": 693,
  "tt": 694,
  "tu": 695,
  "tw": 696,
  "ty": 697,
  "tz": 698,
  "ua": 699,
  "ub": 700,
  "uc": 701,
  "ud": 702,
  "ue": 703,
  "uf": 704,
  "ug": 705,
  "ui": 706,
  "uk": 707,
  "ul": 708,
  "um": 709,
  "un": 710,
  "uo": 711,
  "up": 712,
  "ur": 713,
  "us": 714,
  "ut": 715,
  "va": 716,
  "ve": 717,
  "vi": 718,
  "vo": 719,
  "wa": 720,
  "we": 721,
  "wh": 722,
  "wi": 723,
  "wn": 724,
  "wo": 725,
  "wr": 726,
  "ws": 727,
  "wt": 728,
  "xa": 729,
  "xc": 730,
  "xe": 731,
  "xi": 732,
  "xp": 733,
  "xt": 734,
  "xy": 735,
  "ya": 736,
  "yb": 737,
  "yc": 738,
  "ye": 739,
  "yi": 740,
  "yl": 741,
  "ym": 742,
  "yn": 743,
  "yo": 744,
  "yp": 745,
  "ys": 746,
  "yt": 747,
  "yz": 748,
  "za": 749,
  "ze": 750,
  "zh": 751,
  "zi": 752,
  "zt": 753,
  "Kä": 754,
  "mü": 755,
  "nθ": 756,
  "ré": 757,
  "äh": 758,
  "ét": 759,
  "ül": 760,
  "ARD": 761,
  "Act": 762,
  "Aft": 763,
  "All": 764,
  "Alt": 765,
  "Ana": 766,
  "And": 767,
  "Ano": 768,
  "App": 769,
  "Ass": 770,
  "Asy": 771,
  "Aut": 772,
  "Bec": 773,
  "Ber": 774,
  "Big": 775,
  "Bor": 776,
  "Bou": 777,
  "But": 778,
  "CEN": 779,
  "CHA": 780,
  "Cal": 781,
  "Can": 782,
  "Car": 783,
  "Cas": 784,
  "Cha": 785,
  "Che": 786,
  "Cho": 787,
  "Cla": 788,
  "Coh": 789,
  "Com": 790,
  "Con": 791,
  "Cor": 792,
  "Cou": 793,
  "Cur": 794,
  "DUK": 795,
  "Def": 796,
  "Del": 797,
  "Der": 798,
  "Det": 799,
  "Dir": 800,
  "Don": 801,
  "ENT": 802,
  "Eac": 803,
  "Ele": 804,
  "Equ": 805,
  "Est": 806,
  "Eul": 807,
  "Exp": 808,
  "Ext": 809,
  "Fin": 810,
  "Fir": 811,
  "Fix": 812,
  "For": 813,
  "Fou": 814,
  "Fre": 815,
  "Fro": 816,
  "Fun": 817,
  "Fur": 818,
  "Gal": 819,
  "Gam": 820,
  "Gau": 821,
  "Gen": 822,
  "Geo": 823,
  "Giv": 824,
  "God": 825,
  "Gra": 826,
  "Gro": 827,
  "HAR": 828,
  "Har": 829,
  "Hau": 830,
  "Hec": 831,
  "Hen": 832,
  "Her": 833,
  "Hig": 834,
  "Hil": 835,
  "Hod": 836,
  "Hom": 837,
  "How": 838,
  "ICH": 839,
  "ING": 840,
  "IUS": 841,
  "Ide": 842,
  "Ind": 843,
  "Int": 844,
  "Irr": 845,
  "Its": 846,
  "Iwa": 847,
  "Jac": 848,
  "KIN": 849,
  "Kat": 850,
  "Kaz": 851,
  "Lam": 852,
  "Lan": 853,
  "Law": 854,
  "Lef": 855,
  "Len": 856,
  "Let": 857,
  "Lie": 858,
  "Lus": 859,
  "Mar": 860,
  "Min": 861,
  "Mod": 862,
  "Mor": 863,
  "NCE": 864,
  "NIU": 865,
  "NTI": 866,
  "Non": 867,
  "Nor": 868,
  "Not": 869,
  "Now": 870,
  "Num": 871,
  "Ome": 872,
  "PSL": 873,
  "Par": 874,
  "Per": 875,
  "Pet": 876,
  "Phi": 877,
  "Pic": 878,
  "Poi": 879,
  "Pre": 880,
  "Pri": 881,
  "Pro": 882,
  "Qua": 883,
  "RIC": 884,
  "Rec": 885,
  "Red": 886,
  "Ref": 887,
  "Rel": 888,
  "Res": 889,
  "Ric": 890,
  "Rie": 891,
  "Rig": 892,
  "STE": 893,
  "Sat": 894,
  "Sch": 895,
  "Sec": 896,
  "Sei": 897,
  "Sel": 898,
  "Ser": 899,
  "Set": 900,
  "Sha": 901,
  "Sho": 902,
  "Sig": 903,
  "Sim": 904,
  "Sin": 905,
  "Sol": 906,
  "Spe": 907,
  "Spi": 908,
  "Spr": 909,
  "Sta": 910,
  "Ste": 911,
  "Str": 912,
  "Sub": 913,
  "Sum": 914,
  "Sup": 915,
  "Syl": 916,
  "Sym": 917,
  "TIO": 918,
  "Tak": 919,
  "Tat": 920,
  "Tei": 921,
  "Tha": 922,
  "The": 923,
  "Thi": 924,
  "Tho": 925,
  "Thu": 926,
  "Tra": 927,
  "Try": 928,
  "UCE": 929,
  "UKE": 930,
  "Und": 931,
  "Uni": 932,
  "Use": 933,
  "Usi": 934,
  "Ver": 935,
  "Vol": 936,
  "WAR": 937,
  "Wai": 938,
  "Wei": 939,
  "Wey": 940,
  "Wha": 941,
  "Whe": 942,
  "Whi": 943,
  "Why": 944,
  "Wil": 945,
  "Wit": 946,
  "Wri": 947,
  "Yau": 948,
  "Yes": 949,
  "You": 950,
  "abe": 951,
  "abi": 952,
  "abl": 953,
  "abo": 954,
  "abs": 955,
  "acc": 956,
  "ace": 957,
  "ach": 958,
  "aci": 959,
  "ack": 960,
  "aco": 961,
  "act": 962,
  "acy": 963,
  "add": 964,
  "ade": 965,
  "adi": 966,
  "adj": 967,
  "adm": 968,
  "adr": 969,
  "ady": 970,
  "aff": 971,
  "aft": 972,
  "aga": 973,
  "age": 974,
  "agi": 975,
  "ago": 976,
  "agr": 977,
  "aic": 978,
  "aid": 979,
  "ail": 980,
  "aim": 981,
  "ain": 982,
  "air": 983,
  "ait": 984,
  "ake": 985,
  "aki": 986,
  "ala": 987,
  "alc": 988,
  "ald": 989,
  "ale": 990,
  "alg": 991,
  "ali": 992,
  "alk": 993,
  "all": 994,
  "alm": 995,
  "alo": 996,
  "alp": 997,
  "als": 998,
  "alt": 999,
  "alu": 1000,
  "alw": 1001,
  "aly": 1002,
  "ama": 1003,
  "amb": 1004,
  "ame": 1005,
  "ami": 1006,
  "amm": 1007,
  "amo": 1008,
  "amp": 1009,
  "ana": 1010,
  "anc": 1011,
  "and": 1012,
  "ane": 1013,
  "ang": 1014,
  "ani": 1015,
  "ank": 1016,
  "ann": 1017,
  "ano": 1018,
  "ans": 1019,
  "ant": 1020,
  "any": 1021,
  "aph": 1022,
  "apl": 1023,
  "app": 1024,
  "aps": 1025,
  "ara": 1026,
  "arb": 1027,
  "arc": 1028,
  "ard": 1029,
  "are": 1030,
  "arg": 1031,
  "ari": 1032,
  "ark": 1033,
  "arl": 1034,
  "arm": 1035,
  "arn": 1036,
  "arp": 1037,
  "arr": 1038,
  "ars": 1039,
  "art": 1040,
  "ary": 1041,
  "asa": 1042,
  "ase": 1043,
  "ash": 1044,
  "asi": 1045,
  "ask": 1046,
  "ass": 1047,
  "ast": 1048,
  "asu": 1049,
  "asy": 1050,
  "ata": 1051,
  "atc": 1052,
  "ate": 1053,
  "ath": 1054,
  "ati": 1055,
  "ato": 1056,
  "atr": 1057,
  "att": 1058,
  "atu": 1059,
  "aug": 1060,
  "aus": 1061,
  "aut": 1062,
  "ave": 1063,
  "avi": 1064,
  "awa": 1065,
  "aws": 1066,
  "axi": 1067,
  "ayb": 1068,
  "ays": 1069,
  "azh": 1070,
  "bab": 1071,
  "bac": 1072,
  "bal": 1073,
  "ban": 1074,
  "bar": 1075,
  "bas": 1076,
  "bat": 1077,
  "bda": 1078,
  "bea": 1079,
  "bec": 1080,
  "bed": 1081,
  "beg": 1082,
  "beh": 1083,
  "bei": 1084,
  "bel": 1085,
  "ben": 1086,
  "ber": 1087,
  "bes": 1088,
  "bet": 1089,
  "bgr": 1090,
  "bia": 1091,
  "big": 1092,
  "bij": 1093,
  "bil": 1094,
  "bin": 1095,
  "bit": 1096,
  "bje": 1097,
  "bla": 1098,
  "ble": 1099,
  "bli": 1100,
  "blo": 1101,
  "bly": 1102,
  "bol": 1103,
  "bor": 1104,
  "bot": 1105,
  "bou": 1106,
  "bov": 1107,
  "box": 1108,
  "bra": 1109,
  "bre": 1110,
  "bri": 1111,
  "bro": 1112,
  "bse": 1113,
  "bso": 1114,
  "bsp": 1115,
  "bst": 1116,
  "bta": 1117,
  "bul": 1118,
  "bun": 1119,
  "but": 1120,
  "cal": 1121,
  "can": 1122,
  "cap": 1123,
  "car": 1124,
  "cas": 1125,
  "cat": 1126,
  "cau": 1127,
  "cci": 1128,
  "cco": 1129,
  "ccu": 1130,
  "cdo": 1131,
  "ced": 1132,
  "cee": 1133,
  "cei": 1134,
  "cel": 1135,
  "cen": 1136,
  "cep": 1137,
  "cer": 1138,
  "ces": 1139,
  "cha": 1140,
  "che": 1141,
  "chi": 1142,
  "chl": 1143,
  "chm": 1144,
  "chn": 1145,
  "cho": 1146,
  "chu": 1147,
  "cia": 1148,
  "cib": 1149,
  "cie": 1150,
  "cif": 1151,
  "cin": 1152,
  "cip": 1153,
  "cir": 1154,
  "cis": 1155,
  "cit": 1156,
  "cke": 1157,
  "cki": 1158,
  "cks": 1159,
  "cla": 1160,
  "cle": 1161,
  "cli": 1162,
  "clo": 1163,
  "clu": 1164,
  "cob": 1165,
  "cod": 1166,
  "coe": 1167,
  "coh": 1168,
  "col": 1169,
  "com": 1170,
  "con": 1171,
  "coo": 1172,
  "cop": 1173,
  "cor": 1174,
  "cos": 1175,
  "cou": 1176,
  "cov": 1177,
  "cre": 1178,
  "cri": 1179,
  "cro": 1180,
  "cte": 1181,
  "cti": 1182,
  "ctl": 1183,
  "cto": 1184,
  "ctr": 1185,
  "cts": 1186,
  "ctu": 1187,
  "cub": 1188,
  "cul": 1189,
  "cup": 1190,
  "cur": 1191,
  "cus": 1192,
  "cut": 1193,
  "cyc": 1194,
  "dal": 1195,
  "dam": 1196,
  "dan": 1197,
  "dar": 1198,
  "dat": 1199,
  "day": 1200,
  "dde": 1201,
  "ddi": 1202,
  "dea": 1203,
  "dec": 1204,
  "ded": 1205,
  "dee": 1206,
  "def": 1207,
  "deg": 1208,
  "deh": 1209,
  "del": 1210,
  "den": 1211,
  "dep": 1212,
  "der": 1213,
  "des": 1214,
  "det": 1215,
  "dex": 1216,
  "dge": 1217,
  "dia": 1218,
  "dic": 1219,
  "did": 1220,
  "die": 1221,
  "dif": 1222,
  "dig": 1223,
  "dim": 1224,
  "din": 1225,
  "dir": 1226,
  "dis": 1227,
  "dit": 1228,
  "diu": 1229,
  "div": 1230,
  "djo": 1231,
  "dle": 1232,
  "dmi": 1233,
  "doe": 1234,
  "dom": 1235,
  "don": 1236,
  "dor": 1237,
  "dot": 1238,
  "dou": 1239,
  "dow": 1240,
  "dra": 1241,
  "dre": 1242,
  "dri": 1243,
  "dro": 1244,
  "dso": 1245,
  "dsy": 1246,
  "dua": 1247,
  "duc": 1248,
  "due": 1249,
  "dul": 1250,
  "dyn": 1251,
  "eac": 1252,
  "ead": 1253,
  "eaf": 1254,
  "eak": 1255,
  "eal": 1256,
  "ean": 1257,
  "ear": 1258,
  "eas": 1259,
  "eat": 1260,
  "eav": 1261,
  "ebr": 1262,
  "eca": 1263,
  "ece": 1264,
  "ech": 1265,
  "eci": 1266,
  "eck": 1267,
  "eco": 1268,
  "ecr": 1269,
  "ect": 1270,
  "ecu": 1271,
  "edd": 1272,
  "ede": 1273,
  "edg": 1274,
  "edi": 1275,
  "eds": 1276,
  "edu": 1277,
  "eed": 1278,
  "eem": 1279,
  "een": 1280,
  "eep": 1281,
  "ees": 1282,
  "eet": 1283,
  "efe": 1284,
  "eff": 1285,
  "efi": 1286,
  "efl": 1287,
  "efo": 1288,
  "efr": 1289,
  "efs": 1290,
  "eft": 1291,
  "efu": 1292,
  "ega": 1293,
  "ege": 1294,
  "egi": 1295,
  "ego": 1296,
  "egr": 1297,
  "egu": 1298,
  "eha": 1299,
  "eib": 1300,
  "eic": 1301,
  "eig": 1302,
  "eil": 1303,
  "ein": 1304,
  "eir": 1305,
  "eit": 1306,
  "ela": 1307,
  "elb": 1308,
  "eld": 1309,
  "ele": 1310,
  "elf": 1311,
  "eli": 1312,
  "ell": 1313,
  "elm": 1314,
  "elo": 1315,
  "els": 1316,
  "elt": 1317,
  "ely": 1318,
  "ema": 1319,
  "emb": 1320,
  "eme": 1321,
  "emi": 1322,
  "emm": 1323,
  "emp": 1324,
  "ems": 1325,
  "enc": 1326,
  "end": 1327,
  "ene": 1328,
  "eng": 1329,
  "eni": 1330,
  "eno": 1331,
  "ens": 1332,
  "ent": 1333,
  "enu": 1334,
  "env": 1335,
  "eod": 1336,
  "eom": 1337,
  "eor": 1338,
  "eou": 1339,
  "eov": 1340,
  "epa": 1341,
  "epe": 1342,
  "eph": 1343,
  "epl": 1344,
  "epr": 1345,
  "eps": 1346,
  "ept": 1347,
  "equ": 1348,
  "era": 1349,
  "erb": 1350,
  "erc": 1351,
  "ere": 1352,
  "erf": 1353,
  "erg": 1354,
  "erh": 1355,
  "eri": 1356,
  "erl": 1357,
  "erm": 1358,
  "ern": 1359,
  "ero": 1360,
  "erp": 1361,
  "err": 1362,
  "ers": 1363,
  "ert": 1364,
  "erv": 1365,
  "erw": 1366,
  "ery": 1367,
  "esc": 1368,
  "ese": 1369,
  "esi": 1370,
  "esn": 1371,
  "eso": 1372,
  "esp": 1373,
  "ess": 1374,
  "est": 1375,
  "esu": 1376,
  "eta": 1377,
  "etc": 1378,
  "ete": 1379,
  "eth": 1380,
  "eti": 1381,
  "etm": 1382,
  "etr": 1383,
  "ets": 1384,
  "ett": 1385,
  "etu": 1386,
  "etw": 1387,
  "ety": 1388,
  "etz": 1389,
  "eva": 1390,
  "eve": 1391,
  "evi": 1392,
  "exa": 1393,
  "exc": 1394,
  "exi": 1395,
  "exp": 1396,
  "ext": 1397,
  "eyl": 1398,
  "fac": 1399,
  "fai": 1400,
  "fal": 1401,
  "fam": 1402,
  "far": 1403,
  "fat": 1404,
  "fea": 1405,
  "fec": 1406,
  "feo": 1407,
  "fer": 1408,
  "ffe": 1409,
  "ffi": 1410,
  "fib": 1411,
  "fic": 1412,
  "fie": 1413,
  "fig": 1414,
  "fil": 1415,
  "fin": 1416,
  "fir": 1417,
  "fix": 1418,
  "fla": 1419,
  "fle": 1420,
  "flo": 1421,
  "fol": 1422,
  "for": 1423,
  "fou": 1424,
  "fra": 1425,
  "fre": 1426,
  "fri": 1427,
  "fro": 1428,
  "fsc": 1429,
  "fte": 1430,
  "fty": 1431,
  "ful": 1432,
  "fun": 1433,
  "fyi": 1434,
  "gac": 1435,
  "gai": 1436,
  "gam": 1437,
  "gar": 1438,
  "gat": 1439,
  "gcd": 1440,
  "geb": 1441,
  "gel": 1442,
  "gen": 1443,
  "geo": 1444,
  "geq": 1445,
  "ger": 1446,
  "ges": 1447,
  "get": 1448,
  "gge": 1449,
  "ghe": 1450,
  "ght": 1451,
  "gic": 1452,
  "gid": 1453,
  "gin": 1454,
  "git": 1455,
  "giv": 1456,
  "gla": 1457,
  "gle": 1458,
  "glo": 1459,
  "gma": 1460,
  "gna": 1461,
  "gne": 1462,
  "gni": 1463,
  "god": 1464,
  "gon": 1465,
  "goo": 1466,
  "gop": 1467,
  "gor": 1468,
  "gra": 1469,
  "gre": 1470,
  "gri": 1471,
  "gro": 1472,
  "gru": 1473,
  "gth": 1474,
  "gue": 1475,
  "gul": 1476,
  "gum": 1477,
  "had": 1478,
  "hai": 1479,
  "hal": 1480,
  "ham": 1481,
  "han": 1482,
  "hap": 1483,
  "har": 1484,
  "has": 1485,
  "hat": 1486,
  "hav": 1487,
  "hbb": 1488,
  "hbf": 1489,
  "hca": 1490,
  "hda": 1491,
  "hea": 1492,
  "hec": 1493,
  "hed": 1494,
  "hee": 1495,
  "hei": 1496,
  "hel": 1497,
  "hem": 1498,
  "hen": 1499,
  "heo": 1500,
  "her": 1501,
  "hes": 1502,
  "het": 1503,
  "hey": 1504,
  "hfr": 1505,
  "hfu": 1506,
  "hic": 1507,
  "hie": 1508,
  "hif": 1509,
  "hig": 1510,
  "hil": 1511,
  "him": 1512,
  "hin": 1513,
  "his": 1514,
  "hit": 1515,
  "hle": 1516,
  "hme": 1517,
  "hmi": 1518,
  "hod": 1519,
  "hog": 1520,
  "hoi": 1521,
  "hol": 1522,
  "hom": 1523,
  "hon": 1524,
  "hoo": 1525,
  "hor": 1526,
  "hos": 1527,
  "hou": 1528,
  "how": 1529,
  "hre": 1530,
  "hrm": 1531,
  "hro": 1532,
  "hta": 1533,
  "hte": 1534,
  "hts": 1535,
  "hur": 1536,
  "hus": 1537,
  "hyp": 1538,
  "hys": 1539,
  "iab": 1540,
  "iag": 1541,
  "ial": 1542,
  "ian": 1543,
  "iat": 1544,
  "ibe": 1545,
  "ibi": 1546,
  "ibl": 1547,
  "ibr": 1548,
  "ibu": 1549,
  "ica": 1550,
  "ice": 1551,
  "ich": 1552,
  "ici": 1553,
  "ick": 1554,
  "ics": 1555,
  "ict": 1556,
  "icu": 1557,
  "ida": 1558,
  "ide": 1559,
  "idi": 1560,
  "idu": 1561,
  "iec": 1562,
  "ied": 1563,
  "iel": 1564,
  "iem": 1565,
  "ien": 1566,
  "ier": 1567,
  "ies": 1568,
  "iet": 1569,
  "iev": 1570,
  "ife": 1571,
  "iff": 1572,
  "ifi": 1573,
  "ifo": 1574,
  "ift": 1575,
  "ify": 1576,
  "ige": 1577,
  "igh": 1578,
  "igi": 1579,
  "igl": 1580,
  "igm": 1581,
  "ign": 1582,
  "igo": 1583,
  "igr": 1584,
  "igu": 1585,
  "ije": 1586,
  "ike": 1587,
  "ila": 1588,
  "ilb": 1589,
  "ild": 1590,
  "ile": 1591,
  "ili": 1592,
  "ill": 1593,
  "ilo": 1594,
  "ilp": 1595,
  "ils": 1596,
  "ilt": 1597,
  "ily": 1598,
  "ima": 1599,
  "ime": 1600,
  "imi": 1601,
  "imo": 1602,
  "imp": 1603,
  "imu": 1604,
  "ina": 1605,
  "inc": 1606,
  "ind": 1607,
  "ine": 1608,
  "inf": 1609,
  "ing": 1610,
  "ini": 1611,
  "inj": 1612,
  "ink": 1613,
  "inn": 1614,
  "ino": 1615,
  "ins": 1616,
  "int": 1617,
  "inu": 1618,
  "inv": 1619,
  "iod": 1620,
  "ion": 1621,
  "ior": 1622,
  "iot": 1623,
  "iou": 1624,
  "ipa": 1625,
  "ipl": 1626,
  "ipo": 1627,
  "ipt": 1628,
  "iqu": 1629,
  "ira": 1630,
  "irc": 1631,
  "ire": 1632,
  "iri": 1633,
  "irm": 1634,
  "irr": 1635,
  "irs": 1636,
  "irt": 1637,
  "isc": 1638,
  "ise": 1639,
  "isf": 1640,
  "ish": 1641,
  "isi": 1642,
  "isj": 1643,
  "isk": 1644,
  "ism": 1645,
  "iso": 1646,
  "isp": 1647,
  "iss": 1648,
  "ist": 1649,
  "ita": 1650,
  "ite": 1651,
  "ith": 1652,
  "iti": 1653,
  "itl": 1654,
  "its": 1655,
  "itt": 1656,
  "itu": 1657,
  "ity": 1658,
  "itz": 1659,
  "ius": 1660,
  "iva": 1661,
  "ive": 1662,
  "ivi": 1663,
  "ixe": 1664,
  "iza": 1665,
  "ize": 1666,
  "izi": 1667,
  "jec": 1668,
  "joi": 1669,
  "jug": 1670,
  "jus": 1671,
  "kap": 1672,
  "ked": 1673,
  "kel": 1674,
  "ken": 1675,
  "ker": 1676,
  "kes": 1677,
  "key": 1678,
  "kin": 1679,
  "kno": 1680,
  "lab": 1681,
  "lac": 1682,
  "lag": 1683,
  "lai": 1684,
  "lam": 1685,
  "lan": 1686,
  "lar": 1687,
  "las": 1688,
  "lat": 1689,
  "law": 1690,
  "lay": 1691,
  "lbe": 1692,
  "lcu": 1693,
  "lde": 1694,
  "ldi": 1695,
  "ldo": 1696,
  "lds": 1697,
  "lea": 1698,
  "lec": 1699,
  "led": 1700,
  "lef": 1701,
  "lel": 1702,
  "lem": 1703,
  "len": 1704,
  "leq": 1705,
  "ler": 1706,
  "les": 1707,
  "let": 1708,
  "lev": 1709,
  "lex": 1710,
  "lfl": 1711,
  "lge": 1712,
  "lia": 1713,
  "lic": 1714,
  "lid": 1715,
  "lie": 1716,
  "lif": 1717,
  "lig": 1718,
  "lik": 1719,
  "lim": 1720,
  "lin": 1721,
  "lip": 1722,
  "lis": 1723,
  "lit": 1724,
  "liv": 1725,
  "liz": 1726,
  "lla": 1727,
  "lle": 1728,
  "lli": 1729,
  "llo": 1730,
  "lls": 1731,
  "lly": 1732,
  "lme": 1733,
  "lmo": 1734,
  "lob": 1735,
  "loc": 1736,
  "log": 1737,
  "loi": 1738,
  "lom": 1739,
  "lon": 1740,
  "loo": 1741,
  "lop": 1742,
  "lor": 1743,
  "los": 1744,
  "lot": 1745,
  "lov": 1746,
  "low": 1747,
  "lph": 1748,
  "lpo": 1749,
  "lse": 1750,
  "lso": 1751,
  "lta": 1752,
  "lte": 1753,
  "lti": 1754,
  "ltr": 1755,
  "lts": 1756,
  "lua": 1757,
  "lud": 1758,
  "lue": 1759,
  "lum": 1760,
  "lus": 1761,
  "lut": 1762,
  "lva": 1763,
  "lve": 1764,
  "lvi": 1765,
  "lwa": 1766,
  "lyi": 1767,
  "lyn": 1768,
  "lys": 1769,
  "lyt": 1770,
  "lyz": 1771,
  "mad": 1772,
  "mag": 1773,
  "mai": 1774,
  "mak": 1775,
  "mal": 1776,
  "man": 1777,
  "map": 1778,
  "mar": 1779,
  "mas": 1780,
  "mat": 1781,
  "max": 1782,
  "may": 1783,
  "mbd": 1784,
  "mbe": 1785,
  "mbi": 1786,
  "mbo": 1787,
  "mea": 1788,
  "med": 1789,
  "meg": 1790,
  "men": 1791,
  "meo": 1792,
  "mer": 1793,
  "mes": 1794,
  "met": 1795,
  "mia": 1796,
  "mic": 1797,
  "mid": 1798,
  "mif": 1799,
  "mig": 1800,
  "mil": 1801,
  "min": 1802,
  "mis": 1803,
  "mit": 1804,
  "miz": 1805,
  "mma": 1806,
  "mme": 1807,
  "mmi": 1808,
  "mmu": 1809,
  "mod": 1810,
  "mol": 1811,
  "mom": 1812,
  "mon": 1813,
  "moo": 1814,
  "mor": 1815,
  "mos": 1816,
  "mot": 1817,
  "mov": 1818,
  "mpa": 1819,
  "mpe": 1820,
  "mpl": 1821,
  "mpo": 1822,
  "mpt": 1823,
  "mpu": 1824,
  "muc": 1825,
  "mul": 1826,
  "mum": 1827,
  "mus": 1828,
  "mut": 1829,
  "nab": 1830,
  "nal": 1831,
  "nam": 1832,
  "nan": 1833,
  "nar": 1834,
  "nat": 1835,
  "nca": 1836,
  "nce": 1837,
  "nch": 1838,
  "nci": 1839,
  "ncl": 1840,
  "nco": 1841,
  "ncr": 1842,
  "nct": 1843,
  "ncy": 1844,
  "nda": 1845,
  "nde": 1846,
  "ndi": 1847,
  "ndl": 1848,
  "ndo": 1849,
  "ndr": 1850,
  "nds": 1851,
  "ndu": 1852,
  "nea": 1853,
  "nec": 1854,
  "ned": 1855,
  "nee": 1856,
  "neg": 1857,
  "nei": 1858,
  "nel": 1859,
  "nem": 1860,
  "nen": 1861,
  "neq": 1862,
  "ner": 1863,
  "nes": 1864,
  "net": 1865,
  "nev": 1866,
  "new": 1867,
  "nfi": 1868,
  "nfo": 1869,
  "nft": 1870,
  "nfu": 1871,
  "nge": 1872,
  "ngl": 1873,
  "ngr": 1874,
  "ngs": 1875,
  "ngt": 1876,
  "ngu": 1877,
  "nia": 1878,
  "nic": 1879,
  "nif": 1880,
  "nil": 1881,
  "nim": 1882,
  "nin": 1883,
  "nio": 1884,
  "niq": 1885,
  "nis": 1886,
  "nit": 1887,
  "niu": 1888,
  "niv": 1889,
  "nje": 1890,
  "nju": 1891,
  "nle": 1892,
  "nly": 1893,
  "nmi": 1894,
  "nne": 1895,
  "nni": 1896,
  "nno": 1897,
  "nod": 1898,
  "noi": 1899,
  "nom": 1900,
  "non": 1901,
  "nor": 1902,
  "not": 1903,
  "nou": 1904,
  "now": 1905,
  "nra": 1906,
  "nse": 1907,
  "nsf": 1908,
  "nsi": 1909,
  "nsl": 1910,
  "nso": 1911,
  "nsp": 1912,
  "nst": 1913,
  "nsu": 1914,
  "nsw": 1915,
  "nta": 1916,
  "nte": 1917,
  "nti": 1918,
  "ntl": 1919,
  "nto": 1920,
  "ntr": 1921,
  "nts": 1922,
  "ntu": 1923,
  "num": 1924,
  "nuo": 1925,
  "nus": 1926,
  "nva": 1927,
  "nve": 1928,
  "nvo": 1929,
  "nze": 1930,
  "oac": 1931,
  "oba": 1932,
  "obe": 1933,
  "obi": 1934,
  "obj": 1935,
  "obl": 1936,
  "obs": 1937,
  "obt": 1938,
  "oca": 1939,
  "occ": 1940,
  "oce": 1941,
  "och": 1942,
  "oci": 1943,
  "ock": 1944,
  "ocu": 1945,
  "oda": 1946,
  "odd": 1947,
  "ode": 1948,
  "odg": 1949,
  "odi": 1950,
  "odr": 1951,
  "ods": 1952,
  "odu": 1953,
  "ody": 1954,
  "oef": 1955,
  "oes": 1956,
  "off": 1957,
  "oga": 1958,
  "oge": 1959,
  "ogi": 1960,
  "ogo": 1961,
  "ogr": 1962,
  "ogy": 1963,
  "oho": 1964,
  "oic": 1965,
  "oid": 1966,
  "oin": 1967,
  "ois": 1968,
  "oje": 1969,
  "oke": 1970,
  "ola": 1971,
  "old": 1972,
  "ole": 1973,
  "oli": 1974,
  "oll": 1975,
  "olo": 1976,
  "olu": 1977,
  "olv": 1978,
  "oly": 1979,
  "oma": 1980,
  "omb": 1981,
  "ome": 1982,
  "omi": 1983,
  "omm": 1984,
  "omo": 1985,
  "omp": 1986,
  "omy": 1987,
  "ona": 1988,
  "onc": 1989,
  "ond": 1990,
  "one": 1991,
  "onf": 1992,
  "ong": 1993,
  "oni": 1994,
  "onj": 1995,
  "onl": 1996,
  "onn": 1997,
  "ono": 1998,
  "ons": 1999,
  "ont": 2000,
  "onv": 2001,
  "onz": 2002,
  "ood": 2003,
  "oof": 2004,
  "ook": 2005,
  "oor": 2006,
  "oos": 2007,
  "oot": 2008,
  "ope": 2009,
  "opi": 2010,
  "opl": 2011,
  "opo": 2012,
  "opr": 2013,
  "opt": 2014,
  "opy": 2015,
  "ora": 2016,
  "orb": 2017,
  "orc": 2018,
  "ord": 2019,
  "ore": 2020,
  "orf": 2021,
  "ori": 2022,
  "ork": 2023,
  "orm": 2024,
  "orn": 2025,
  "oro": 2026,
  "orp": 2027,
  "orr": 2028,
  "ors": 2029,
  "ort": 2030,
  "oru": 2031,
  "ory": 2032,
  "ose": 2033,
  "osi": 2034,
  "oss": 2035,
  "ost": 2036,
  "osu": 2037,
  "ota": 2038,
  "ote": 2039,
  "oth": 2040,
  "oti": 2041,
  "oto": 2042,
  "ots": 2043,
  "ott": 2044,
  "oub": 2045,
  "oug": 2046,
  "oul": 2047,
  "oun": 2048,
  "oup": 2049,
  "our": 2050,
  "ous": 2051,
  "out": 2052,
  "ove": 2053,
  "ovi": 2054,
  "owe": 2055,
  "owi": 2056,
  "own": 2057,
  "ows": 2058,
  "owt": 2059,
  "oxe": 2060,
  "oxi": 2061,
  "pac": 2062,
  "pai": 2063,
  "pal": 2064,
  "pan": 2065,
  "par": 2066,
  "pat": 2067,
  "pea": 2068,
  "pec": 2069,
  "pen": 2070,
  "per": 2071,
  "pes": 2072,
  "pha": 2073,
  "phe": 2074,
  "phi": 2075,
  "phs": 2076,
  "phy": 2077,
  "pic": 2078,
  "pie": 2079,
  "pin": 2080,
  "pla": 2081,
  "ple": 2082,
  "pli": 2083,
  "plu": 2084,
  "ply": 2085,
  "pma": 2086,
  "pmo": 2087,
  "poi": 2088,
  "pol": 2089,
  "pon": 2090,
  "por": 2091,
  "pos": 2092,
  "pot": 2093,
  "pow": 2094,
  "ppa": 2095,
  "ppe": 2096,
  "ppi": 2097,
  "ppl": 2098,
  "ppo": 2099,
  "ppr": 2100,
  "pre": 2101,
  "pri": 2102,
  "pro": 2103,
  "pse": 2104,
  "psi": 2105,
  "pst": 2106,
  "pti": 2107,
  "pto": 2108,
  "pty": 2109,
  "pul": 2110,
  "pur": 2111,
  "put": 2112,
  "qqu": 2113,
  "qrt": 2114,
  "qua": 2115,
  "que": 2116,
  "qui": 2117,
  "quo": 2118,
  "rab": 2119,
  "rac": 2120,
  "rad": 2121,
  "rag": 2122,
  "rai": 2123,
  "rak": 2124,
  "ral": 2125,
  "ram": 2126,
  "ran": 2127,
  "rap": 2128,
  "rar": 2129,
  "ras": 2130,
  "rat": 2131,
  "ray": 2132,
  "rbi": 2133,
  "rbo": 2134,
  "rce": 2135,
  "rch": 2136,
  "rcl": 2137,
  "rda": 2138,
  "rde": 2139,
  "rdi": 2140,
  "rds": 2141,
  "rea": 2142,
  "rec": 2143,
  "red": 2144,
  "ree": 2145,
  "ref": 2146,
  "reg": 2147,
  "rei": 2148,
  "rel": 2149,
  "rem": 2150,
  "ren": 2151,
  "reo": 2152,
  "rep": 2153,
  "req": 2154,
  "res": 2155,
  "ret": 2156,
  "rev": 2157,
  "rew": 2158,
  "rfa": 2159,
  "rfe": 2160,
  "rff": 2161,
  "rfl": 2162,
  "rge": 2163,
  "rgo": 2164,
  "rgu": 2165,
  "rgy": 2166,
  "rha": 2167,
  "rho": 2168,
  "ria": 2169,
  "rib": 2170,
  "ric": 2171,
  "rid": 2172,
  "rie": 2173,
  "rif": 2174,
  "rig": 2175,
  "ril": 2176,
  "rim": 2177,
  "rin": 2178,
  "rio": 2179,
  "rip": 2180,
  "ris": 2181,
  "rit": 2182,
  "riv": 2183,
  "rix": 2184,
  "riz": 2185,
  "rje": 2186,
  "rks": 2187,
  "rli": 2188,
  "rly": 2189,
  "rma": 2190,
  "rmi": 2191,
  "rmo": 2192,
  "rms": 2193,
  "rmu": 2194,
  "rna": 2195,
  "rne": 2196,
  "rni": 2197,
  "rns": 2198,
  "roa": 2199,
  "rob": 2200,
  "roc": 2201,
  "rod": 2202,
  "rog": 2203,
  "roj": 2204,
  "rol": 2205,
  "rom": 2206,
  "ron": 2207,
  "roo": 2208,
  "rop": 2209,
  "ror": 2210,
  "ros": 2211,
  "rot": 2212,
  "rou": 2213,
  "rov": 2214,
  "row": 2215,
  "rox": 2216,
  "rph": 2217,
  "rpo": 2218,
  "rpr": 2219,
  "rra": 2220,
  "rre": 2221,
  "rri": 2222,
  "rro": 2223,
  "rsa": 2224,
  "rse": 2225,
  "rsi": 2226,
  "rss": 2227,
  "rst": 2228,
  "rta": 2229,
  "rte": 2230,
  "rth": 2231,
  "rti": 2232,
  "rts": 2233,
  "rtu": 2234,
  "rty": 2235,
  "ruc": 2236,
  "rue": 2237,
  "rul": 2238,
  "rum": 2239,
  "run": 2240,
  "rus": 2241,
  "rva": 2242,
  "rve": 2243,
  "rvi": 2244,
  "rwi": 2245,
  "sal": 2246,
  "sam": 2247,
  "sar": 2248,
  "sat": 2249,
  "saw": 2250,
  "say": 2251,
  "sca": 2252,
  "sce": 2253,
  "sch": 2254,
  "sco": 2255,
  "scr": 2256,
  "sdo": 2257,
  "sea": 2258,
  "sec": 2259,
  "sed": 2260,
  "see": 2261,
  "sel": 2262,
  "sem": 2263,
  "sen": 2264,
  "sep": 2265,
  "seq": 2266,
  "ser": 2267,
  "ses": 2268,
  "set": 2269,
  "sev": 2270,
  "sfi": 2271,
  "sfo": 2272,
  "sfy": 2273,
  "sha": 2274,
  "she": 2275,
  "shi": 2276,
  "sho": 2277,
  "sia": 2278,
  "sib": 2279,
  "sic": 2280,
  "sid": 2281,
  "sif": 2282,
  "sig": 2283,
  "sil": 2284,
  "sim": 2285,
  "sin": 2286,
  "sio": 2287,
  "sir": 2288,
  "sis": 2289,
  "sit": 2290,
  "siz": 2291,
  "sjo": 2292,
  "ski": 2293,
  "sks": 2294,
  "sla": 2295,
  "slo": 2296,
  "sly": 2297,
  "sma": 2298,
  "smo": 2299,
  "sms": 2300,
  "soc": 2301,
  "sol": 2302,
  "som": 2303,
  "son": 2304,
  "sor": 2305,
  "sot": 2306,
  "sou": 2307,
  "sov": 2308,
  "spa": 2309,
  "spe": 2310,
  "sph": 2311,
  "spi": 2312,
  "spl": 2313,
  "spo": 2314,
  "spr": 2315,
  "sqr": 2316,
  "squ": 2317,
  "ssa": 2318,
  "sse": 2319,
  "ssi": 2320,
  "sso": 2321,
  "ssu": 2322,
  "sta": 2323,
  "ste": 2324,
  "sti": 2325,
  "sto": 2326,
  "str": 2327,
  "sts": 2328,
  "stu": 2329,
  "sub": 2330,
  "suc": 2331,
  "suf": 2332,
  "sug": 2333,
  "sul": 2334,
  "sum": 2335,
  "sup": 2336,
  "sur": 2337,
  "swe": 2338,
  "sym": 2339,
  "sys": 2340,
  "szt": 2341,
  "tab": 2342,
  "tac": 2343,
  "tag": 2344,
  "tai": 2345,
  "tak": 2346,
  "tal": 2347,
  "tan": 2348,
  "tar": 2349,
  "tat": 2350,
  "tau": 2351,
  "tbf": 2352,
  "tch": 2353,
  "tco": 2354,
  "tea": 2355,
  "tec": 2356,
  "ted": 2357,
  "teg": 2358,
  "tei": 2359,
  "tel": 2360,
  "tem": 2361,
  "ten": 2362,
  "tep": 2363,
  "teq": 2364,
  "ter": 2365,
  "tes": 2366,
  "tex": 2367,
  "tfr": 2368,
  "tha": 2369,
  "thb": 2370,
  "thc": 2371,
  "the": 2372,
  "thf": 2373,
  "thi": 2374,
  "thm": 2375,
  "tho": 2376,
  "thr": 2377,
  "ths": 2378,
  "thu": 2379,
  "thy": 2380,
  "tia": 2381,
  "tib": 2382,
  "tic": 2383,
  "tie": 2384,
  "tif": 2385,
  "tig": 2386,
  "til": 2387,
  "tim": 2388,
  "tin": 2389,
  "tio": 2390,
  "tip": 2391,
  "tir": 2392,
  "tis": 2393,
  "tit": 2394,
  "tiv": 2395,
  "tle": 2396,
  "tly": 2397,
  "tmi": 2398,
  "tne": 2399,
  "tog": 2400,
  "tok": 2401,
  "tol": 2402,
  "tom": 2403,
  "ton": 2404,
  "too": 2405,
  "top": 2406,
  "tor": 2407,
  "tot": 2408,
  "tra": 2409,
  "tre": 2410,
  "tri": 2411,
  "tro": 2412,
  "tru": 2413,
  "try": 2414,
  "tse": 2415,
  "tta": 2416,
  "tte": 2417,
  "tti": 2418,
  "ttl": 2419,
  "tua": 2420,
  "tud": 2421,
  "tum": 2422,
  "tup": 2423,
  "tur": 2424,
  "tut": 2425,
  "twe": 2426,
  "twi": 2427,
  "two": 2428,
  "typ": 2429,
  "uad": 2430,
  "ual": 2431,
  "uan": 2432,
  "uar": 2433,
  "uas": 2434,
  "uat": 2435,
  "uba": 2436,
  "ube": 2437,
  "ubg": 2438,
  "ubi": 2439,
  "ubl": 2440,
  "ubm": 2441,
  "ubs": 2442,
  "uce": 2443,
  "uch": 2444,
  "uci": 2445,
  "uct": 2446,
  "ude": 2447,
  "udi": 2448,
  "ued": 2449,
  "uen": 2450,
  "ues": 2451,
  "uff": 2452,
  "uga": 2453,
  "ugg": 2454,
  "ugh": 2455,
  "uil": 2456,
  "uir": 2457,
  "uit": 2458,
  "uiv": 2459,
  "ula": 2460,
  "uld": 2461,
  "ule": 2462,
  "uli": 2463,
  "ull": 2464,
  "ulo": 2465,
  "ult": 2466,
  "umb": 2467,
  "ume": 2468,
  "umm": 2469,
  "ump": 2470,
  "ums": 2471,
  "unc": 2472,
  "und": 2473,
  "uni": 2474,
  "unl": 2475,
  "unr": 2476,
  "uns": 2477,
  "unt": 2478,
  "uot": 2479,
  "uou": 2480,
  "upe": 2481,
  "upo": 2482,
  "upp": 2483,
  "ups": 2484,
  "ura": 2485,
  "urb": 2486,
  "ure": 2487,
  "urf": 2488,
  "urg": 2489,
  "uri": 2490,
  "urj": 2491,
  "urn": 2492,
  "urr": 2493,
  "urs": 2494,
  "urt": 2495,
  "urv": 2496,
  "usd": 2497,
  "use": 2498,
  "usi": 2499,
  "usl": 2500,
  "usp": 2501,
  "uss": 2502,
  "ust": 2503,
  "usz": 2504,
  "uta": 2505,
  "utc": 2506,
  "ute": 2507,
  "uti": 2508,
  "uto": 2509,
  "uts": 2510,
  "vab": 2511,
  "val": 2512,
  "van": 2513,
  "var": 2514,
  "vat": 2515,
  "vec": 2516,
  "ved": 2517,
  "vee": 2518,
  "vel": 2519,
  "ven": 2520,
  "ver": 2521,
  "ves": 2522,
  "vex": 2523,
  "via": 2524,
  "vic": 2525,
  "vid": 2526,
  "vin": 2527,
  "vio": 2528,
  "vir": 2529,
  "vis": 2530,
  "vit": 2531,
  "vol": 2532,
  "wal": 2533,
  "wan": 2534,
  "war": 2535,
  "was": 2536,
  "way": 2537,
  "wea": 2538,
  "wed": 2539,
  "wee": 2540,
  "wei": 2541,
  "wel": 2542,
  "wer": 2543,
  "wev": 2544,
  "wha": 2545,
  "whe": 2546,
  "whi": 2547,
  "who": 2548,
  "wic": 2549,
  "wid": 2550,
  "wil": 2551,
  "win": 2552,
  "wis": 2553,
  "wit": 2554,
  "wor": 2555,
  "wou": 2556,
  "wri": 2557,
  "wth": 2558,
  "xac": 2559,
  "xam": 2560,
  "xce": 2561,
  "xed": 2562,
  "xes": 2563,
  "xim": 2564,
  "xis": 2565,
  "xit": 2566,
  "xpa": 2567,
  "xpe": 2568,
  "xpl": 2569,
  "xpo": 2570,
  "xpr": 2571,
  "xtb": 2572,
  "xtc": 2573,
  "xte": 2574,
  "xtr": 2575,
  "ybe": 2576,
  "ycl": 2577,
  "yes": 2578,
  "yet": 2579,
  "yie": 2580,
  "yin": 2581,
  "ylo": 2582,
  "ymb": 2583,
  "ymm": 2584,
  "ymp": 2585,
  "yna": 2586,
  "yno": 2587,
  "you": 2588,
  "ype": 2589,
  "ypi": 2590,
  "ypo": 2591,
  "yse": 2592,
  "ysi": 2593,
  "yst": 2594,
  "yti": 2595,
  "yze": 2596,
  "zat": 2597,
  "zed": 2598,
  "zen": 2599,
  "zer": 2600,
  "zes": 2601,
  "zet": 2602,
  "zhd": 2603,
  "zin": 2604,
  "zti": 2605,
  "Käh": 2606,
  "hmü": 2607,
  "inθ": 2608,
  "mül": 2609,
  "ähl": 2610,
  "üll": 2611,
  "Actu": 2612,
  "Afte": 2613,
  "Anal": 2614,
  "Appl": 2615,
  "Assu": 2616,
  "Beca": 2617,
  "Bigl": 2618,
  "Bigr": 2619,
  "Bore": 2620,
  "Boun": 2621,
  "Cala": 2622,
  "Calc": 2623,
  "Case": 2624,
  "Char": 2625,
  "Chec": 2626,
  "Cher": 2627,
  "Clas": 2628,
  "Comb": 2629,
  "Comp": 2630,
  "Conc": 2631,
  "Cond": 2632,
  "Conj": 2633,
  "Conn": 2634,
  "Cons": 2635,
  "Cont": 2636,
  "Conv": 2637,
  "Corr": 2638,
  "Coun": 2639,
  "Defi": 2640,
  "Delt": 2641,
  "Deri": 2642,
  "Dete": 2643,
  "Diri": 2644,
  "Each": 2645,
  "Elec": 2646,
  "Equi": 2647,
  "Eule": 2648,
  "Fina": 2649,
  "Find": 2650,
  "Firs": 2651,
  "Form": 2652,
  "Four": 2653,
  "Frob": 2654,
  "From": 2655,
  "Furt": 2656,
  "Galo": 2657,
  "Gamm": 2658,
  "Gaus": 2659,
  "Gene": 2660,
  "Give": 2661,
  "Grom": 2662,
  "Grou": 2663,
  "Haus": 2664,
  "Heck": 2665,
  "Henc": 2666,
  "Here": 2667,
  "Hilb": 2668,
  "Hodg": 2669,
  "Howe": 2670,
  "Iden": 2671,
  "Inde": 2672,
  "Inte": 2673,
  "Iwas": 2674,
  "Jaco": 2675,
  "KING": 2676,
  "Lamb": 2677,
  "Laws": 2678,
  "Lefs": 2679,
  "Lusz": 2680,
  "Modu": 2681,
  "More": 2682,
  "NIUS": 2683,
  "Nota": 2684,
  "Note": 2685,
  "Omeg": 2686,
  "Perh": 2687,
  "Pete": 2688,
  "Poin": 2689,
  "Proo": 2690,
  "Prov": 2691,
  "Redu": 2692,
  "Refi": 2693,
  "Rela": 2694,
  "Riem": 2695,
  "Righ": 2696,
  "Schu": 2697,
  "Seib": 2698,
  "Selm": 2699,
  "Setu": 2700,
  "Sigm": 2701,
  "Simi": 2702,
  "Simp": 2703,
  "Sinc": 2704,
  "Spec": 2705,
  "Spin": 2706,
  "Spri": 2707,
  "Step": 2708,
  "Stru": 2709,
  "Summ": 2710,
  "Supp": 2711,
  "Sylo": 2712,
  "Tate": 2713,
  "Teic": 2714,
  "That": 2715,
  "Then": 2716,
  "Theo": 2717,
  "Ther": 2718,
  "Thes": 2719,
  "Thet": 2720,
  "This": 2721,
  "Thus": 2722,
  "Tran": 2723,
  "Unde": 2724,
  "Usin": 2725,
  "Veri": 2726,
  "Wait": 2727,
  "Weil": 2728,
  "Weyl": 2729,
  "What": 2730,
  "When": 2731,
  "With": 2732,
  "Witt": 2733,
  "abel": 2734,
  "abil": 2735,
  "abla": 2736,
  "able": 2737,
  "abli": 2738,
  "abol": 2739,
  "abou": 2740,
  "abov": 2741,
  "abso": 2742,
  "aces": 2743,
  "achi": 2744,
  "acob": 2745,
  "acte": 2746,
  "acti": 2747,
  "actl": 2748,
  "acto": 2749,
  "acts": 2750,
  "actu": 2751,
  "addi": 2752,
  "aded": 2753,
  "adic": 2754,
  "adin": 2755,
  "adiu": 2756,
  "adjo": 2757,
  "admi": 2758,
  "adra": 2759,
  "affi": 2760,
  "afte": 2761,
  "agai": 2762,
  "agin": 2763,
  "agon": 2764,
  "agra": 2765,
  "aile": 2766,
  "aine": 2767,
  "aini": 2768,
  "ains": 2769,
  "aint": 2770,
  "airi": 2771,
  "airs": 2772,
  "aith": 2773,
  "akes": 2774,
  "akin": 2775,
  "alab": 2776,
  "alar": 2777,
  "alcu": 2778,
  "alds": 2779,
  "alen": 2780,
  "alge": 2781,
  "alid": 2782,
  "alin": 2783,
  "alit": 2784,
  "aliz": 2785,
  "alle": 2786,
  "allo": 2787,
  "ally": 2788,
  "almo": 2789,
  "aloi": 2790,
  "alon": 2791,
  "alph": 2792,
  "alse": 2793,
  "also": 2794,
  "alua": 2795,
  "alue": 2796,
  "alwa": 2797,
  "alys": 2798,
  "alyt": 2799,
  "alyz": 2800,
  "ambd": 2801,
  "amen": 2802,
  "amet": 2803,
  "amic": 2804,
  "amif": 2805,
  "amil": 2806,
  "amin": 2807,
  "amma": 2808,
  "ampl": 2809,
  "anal": 2810,
  "ance": 2811,
  "anch": 2812,
  "anda": 2813,
  "andi": 2814,
  "ando": 2815,
  "ands": 2816,
  "ange": 2817,
  "angl": 2818,
  "anif": 2819,
  "anis": 2820,
  "anni": 2821,
  "anno": 2822,
  "anon": 2823,
  "ansf": 2824,
  "ansi": 2825,
  "ansl": 2826,
  "answ": 2827,
  "anti": 2828,
  "anto": 2829,
  "ants": 2830,
  "antu": 2831,
  "aphs": 2832,
  "appa": 2833,
  "appe": 2834,
  "appi": 2835,
  "appl": 2836,
  "appr": 2837,
  "apst": 2838,
  "arab": 2839,
  "arac": 2840,
  "aram": 2841,
  "arch": 2842,
  "area": 2843,
  "aref": 2844,
  "arep": 2845,
  "ares": 2846,
  "arev": 2847,
  "arge": 2848,
  "argu": 2849,
  "aria": 2850,
  "arie": 2851,
  "aril": 2852,
  "aris": 2853,
  "arit": 2854,
  "ariz": 2855,
  "arly": 2856,
  "armo": 2857,
  "arph": 2858,
  "arra": 2859,
  "arri": 2860,
  "arro": 2861,
  "arti": 2862,
  "arts": 2863,
  "asaw": 2864,
  "ases": 2865,
  "asin": 2866,
  "asis": 2867,
  "asse": 2868,
  "assi": 2869,
  "asso": 2870,
  "assu": 2871,
  "aste": 2872,
  "asur": 2873,
  "asym": 2874,
  "atch": 2875,
  "ated": 2876,
  "ateg": 2877,
  "atel": 2878,
  "atem": 2879,
  "ater": 2880,
  "ates": 2881,
  "athb": 2882,
  "athc": 2883,
  "athe": 2884,
  "athf": 2885,
  "athr": 2886,
  "aths": 2887,
  "atib": 2888,
  "atic": 2889,
  "atin": 2890,
  "atio": 2891,
  "atis": 2892,
  "ativ": 2893,
  "ator": 2894,
  "atri": 2895,
  "atte": 2896,
  "atti": 2897,
  "atur": 2898,
  "ausd": 2899,
  "ause": 2900,
  "auss": 2901,
  "auto": 2902,
  "aver": 2903,
  "aves": 2904,
  "avio": 2905,
  "axim": 2906,
  "babi": 2907,
  "back": 2908,
  "ball": 2909,
  "base": 2910,
  "basi": 2911,
  "beca": 2912,
  "beco": 2913,
  "bedd": 2914,
  "begi": 2915,
  "beha": 2916,
  "bein": 2917,
  "beli": 2918,
  "belo": 2919,
  "beni": 2920,
  "berg": 2921,
  "bers": 2922,
  "bert": 2923,
  "beta": 2924,
  "betw": 2925,
  "bgro": 2926,
  "bian": 2927,
  "bigl": 2928,
  "bigo": 2929,
  "bigr": 2930,
  "bije": 2931,
  "bili": 2932,
  "bina": 2933,
  "bine": 2934,
  "bini": 2935,
  "bino": 2936,
  "bits": 2937,
  "bjec": 2938,
  "blem": 2939,
  "bles": 2940,
  "blis": 2941,
  "bloc": 2942,
  "boli": 2943,
  "both": 2944,
  "boun": 2945,
  "bout": 2946,
  "bove": 2947,
  "boxe": 2948,
  "brai": 2949,
  "bran": 2950,
  "bser": 2951,
  "bset": 2952,
  "bsol": 2953,
  "bspa": 2954,
  "bsti": 2955,
  "bstr": 2956,
  "btai": 2957,
  "bull": 2958,
  "bund": 2959,
  "bute": 2960,
  "buti": 2961,
  "cala": 2962,
  "calc": 2963,
  "cali": 2964,
  "call": 2965,
  "canc": 2966,
  "cann": 2967,
  "cano": 2968,
  "card": 2969,
  "care": 2970,
  "case": 2971,
  "cate": 2972,
  "cati": 2973,
  "caus": 2974,
  "ccur": 2975,
  "cdot": 2976,
  "ceed": 2977,
  "cent": 2978,
  "cept": 2979,
  "cert": 2980,
  "cess": 2981,
  "chai": 2982,
  "chan": 2983,
  "char": 2984,
  "chec": 2985,
  "chem": 2986,
  "ches": 2987,
  "chet": 2988,
  "chie": 2989,
  "chin": 2990,
  "chle": 2991,
  "choi": 2992,
  "choo": 2993,
  "cial": 2994,
  "ciat": 2995,
  "cibl": 2996,
  "cien": 2997,
  "cifi": 2998,
  "cipa": 2999,
  "cipl": 3000,
  "circ": 3001,
  "cise": 3002,
  "citl": 3003,
  "city": 3004,
  "ckin": 3005,
  "clai": 3006,
  "clas": 3007,
  "cles": 3008,
  "clic": 3009,
  "clos": 3010,
  "clot": 3011,
  "clud": 3012,
  "clus": 3013,
  "cobi": 3014,
  "codi": 3015,
  "coef": 3016,
  "coho": 3017,
  "coll": 3018,
  "colo": 3019,
  "comb": 3020,
  "come": 3021,
  "comm": 3022,
  "comp": 3023,
  "conc": 3024,
  "cond": 3025,
  "cone": 3026,
  "conf": 3027,
  "cong": 3028,
  "conj": 3029,
  "conn": 3030,
  "cons": 3031,
  "cont": 3032,
  "conv": 3033,
  "coor": 3034,
  "corr": 3035,
  "coul": 3036,
  "coun": 3037,
  "cove": 3038,
  "crea": 3039,
  "cret": 3040,
  "crim": 3041,
  "crit": 3042,
  "cros": 3043,
  "cted": 3044,
  "cter": 3045,
  "ctic": 3046,
  "ctin": 3047,
  "ctio": 3048,
  "ctiv": 3049,
  "ctly": 3050,
  "ctor": 3051,
  "ctra": 3052,
  "ctro": 3053,
  "ctru": 3054,
  "ctua": 3055,
  "ctur": 3056,
  "cula": 3057,
  "curr": 3058,
  "curs": 3059,
  "curv": 3060,
  "cycl": 3061,
  "dame": 3062,
  "dard": 3063,
  "dary": 3064,
  "data": 3065,
  "date": 3066,
  "ddin": 3067,
  "ddit": 3068,
  "deal": 3069,
  "deat": 3070,
  "deco": 3071,
  "deed": 3072,
  "deep": 3073,
  "defi": 3074,
  "defo": 3075,
  "dege": 3076,
  "degr": 3077,
  "deha": 3078,
  "delt": 3079,
  "denc": 3080,
  "deno": 3081,
  "dens": 3082,
  "dent": 3083,
  "depe": 3084,
  "dere": 3085,
  "deri": 3086,
  "ders": 3087,
  "desc": 3088,
  "desi": 3089,
  "deta": 3090,
  "dete": 3091,
  "deti": 3092,
  "dges": 3093,
  "diag": 3094,
  "dica": 3095,
  "dict": 3096,
  "diff": 3097,
  "digi": 3098,
  "dime": 3099,
  "dina": 3100,
  "ding": 3101,
  "dire": 3102,
  "disc": 3103,
  "disj": 3104,
  "disp": 3105,
  "dist": 3106,
  "diti": 3107,
  "dius": 3108,
  "divi": 3109,
  "djoi": 3110,
  "dles": 3111,
  "dmit": 3112,
  "does": 3113,
  "domi": 3114,
  "dorf": 3115,
  "dots": 3116,
  "doub": 3117,
  "drat": 3118,
  "drom": 3119,
  "dson": 3120,
  "dsym": 3121,
  "dual": 3122,
  "duce": 3123,
  "duci": 3124,
  "duct": 3125,
  "dula": 3126,
  "dule": 3127,
  "duli": 3128,
  "dulo": 3129,
  "dyna": 3130,
  "each": 3131,
  "eadi": 3132,
  "eali": 3133,
  "eals": 3134,
  "eans": 3135,
  "earl": 3136,
  "ears": 3137,
  "eart": 3138,
  "ease": 3139,
  "easi": 3140,
  "east": 3141,
  "easu": 3142,
  "eate": 3143,
  "eath": 3144,
  "eave": 3145,
  "ebra": 3146,
  "ecau": 3147,
  "eces": 3148,
  "ecia": 3149,
  "ecif": 3150,
  "ecis": 3151,
  "ecke": 3152,
  "ecom": 3153,
  "econ": 3154,
  "ecre": 3155,
  "ecte": 3156,
  "ecti": 3157,
  "ectl": 3158,
  "ecto": 3159,
  "ectr": 3160,
  "ects": 3161,
  "ectu": 3162,
  "ecur": 3163,
  "eddi": 3164,
  "edge": 3165,
  "educ": 3166,
  "effe": 3167,
  "effi": 3168,
  "efin": 3169,
  "efle": 3170,
  "efor": 3171,
  "efsc": 3172,
  "eful": 3173,
  "egat": 3174,
  "egen": 3175,
  "eger": 3176,
  "egin": 3177,
  "egor": 3178,
  "egra": 3179,
  "egre": 3180,
  "egul": 3181,
  "ehat": 3182,
  "ehav": 3183,
  "eibe": 3184,
  "eich": 3185,
  "eige": 3186,
  "eigh": 3187,
  "eing": 3188,
  "eith": 3189,
  "elat": 3190,
  "elds": 3191,
  "elem": 3192,
  "elia": 3193,
  "elim": 3194,
  "elli": 3195,
  "elme": 3196,
  "else": 3197,
  "elta": 3198,
  "emai": 3199,
  "eman": 3200,
  "emat": 3201,
  "embe": 3202,
  "emen": 3203,
  "emis": 3204,
  "emma": 3205,
  "empt": 3206,
  "ence": 3207,
  "ency": 3208,
  "ende": 3209,
  "endi": 3210,
  "ends": 3211,
  "ener": 3212,
  "enes": 3213,
  "engt": 3214,
  "eniu": 3215,
  "enom": 3216,
  "enot": 3217,
  "ense": 3218,
  "ensi": 3219,
  "enso": 3220,
  "ensu": 3221,
  "enta": 3222,
  "ente": 3223,
  "enti": 3224,
  "entl": 3225,
  "entr": 3226,
  "ents": 3227,
  "enum": 3228,
  "enus": 3229,
  "enva": 3230,
  "eode": 3231,
  "eome": 3232,
  "eomo": 3233,
  "eore": 3234,
  "eory": 3235,
  "eous": 3236,
  "eove": 3237,
  "epar": 3238,
  "epen": 3239,
  "epre": 3240,
  "epsi": 3241,
  "epti": 3242,
  "equa": 3243,
  "eque": 3244,
  "equi": 3245,
  "erag": 3246,
  "eral": 3247,
  "erat": 3248,
  "erbo": 3249,
  "ered": 3250,
  "eref": 3251,
  "erel": 3252,
  "eren": 3253,
  "erfe": 3254,
  "erge": 3255,
  "ergo": 3256,
  "ergy": 3257,
  "erha": 3258,
  "eric": 3259,
  "erie": 3260,
  "erif": 3261,
  "erin": 3262,
  "erio": 3263,
  "eris": 3264,
  "eriv": 3265,
  "eriz": 3266,
  "erli": 3267,
  "erma": 3268,
  "ermi": 3269,
  "ermo": 3270,
  "erms": 3271,
  "ermu": 3272,
  "erna": 3273,
  "erne": 3274,
  "eros": 3275,
  "erpr": 3276,
  "erro": 3277,
  "ersa": 3278,
  "erse": 3279,
  "ersi": 3280,
  "erss": 3281,
  "erst": 3282,
  "erta": 3283,
  "erte": 3284,
  "erti": 3285,
  "erty": 3286,
  "erva": 3287,
  "erve": 3288,
  "ervi": 3289,
  "escr": 3290,
  "esen": 3291,
  "eser": 3292,
  "esic": 3293,
  "esid": 3294,
  "esis": 3295,
  "esol": 3296,
  "espe": 3297,
  "espo": 3298,
  "essa": 3299,
  "esse": 3300,
  "essi": 3301,
  "esta": 3302,
  "esti": 3303,
  "estr": 3304,
  "ests": 3305,
  "esul": 3306,
  "etai": 3307,
  "etat": 3308,
  "etel": 3309,
  "eteq": 3310,
  "eter": 3311,
  "ethe": 3312,
  "ethi": 3313,
  "etho": 3314,
  "etic": 3315,
  "etie": 3316,
  "etil": 3317,
  "etmi": 3318,
  "etri": 3319,
  "etry": 3320,
  "ette": 3321,
  "etti": 3322,
  "etup": 3323,
  "etwe": 3324,
  "eval": 3325,
  "eved": 3326,
  "evel": 3327,
  "even": 3328,
  "ever": 3329,
  "exac": 3330,
  "exam": 3331,
  "exce": 3332,
  "exis": 3333,
  "exit": 3334,
  "expa": 3335,
  "expe": 3336,
  "expl": 3337,
  "expo": 3338,
  "expr": 3339,
  "extb": 3340,
  "extc": 3341,
  "exte": 3342,
  "extr": 3343,
  "face": 3344,
  "fact": 3345,
  "fait": 3346,
  "fals": 3347,
  "fami": 3348,
  "fath": 3349,
  "fect": 3350,
  "feom": 3351,
  "fere": 3352,
  "ffec": 3353,
  "ffeo": 3354,
  "ffer": 3355,
  "ffic": 3356,
  "ffin": 3357,
  "fibe": 3358,
  "fibr": 3359,
  "fica": 3360,
  "fici": 3361,
  "fied": 3362,
  "fiel": 3363,
  "fies": 3364,
  "filt": 3365,
  "fina": 3366,
  "find": 3367,
  "fine": 3368,
  "fini": 3369,
  "firs": 3370,
  "fixe": 3371,
  "flat": 3372,
  "flec": 3373,
  "floo": 3374,
  "flow": 3375,
  "fold": 3376,
  "foll": 3377,
  "forc": 3378,
  "ford": 3379,
  "fore": 3380,
  "form": 3381,
  "fort": 3382,
  "frac": 3383,
  "frak": 3384,
  "free": 3385,
  "from": 3386,
  "fsch": 3387,
  "fter": 3388,
  "full": 3389,
  "func": 3390,
  "fund": 3391,
  "fyin": 3392,
  "gacy": 3393,
  "gain": 3394,
  "gamm": 3395,
  "gari": 3396,
  "gate": 3397,
  "gati": 3398,
  "gebr": 3399,
  "genc": 3400,
  "gene": 3401,
  "gent": 3402,
  "genu": 3403,
  "genv": 3404,
  "geod": 3405,
  "geom": 3406,
  "gers": 3407,
  "gest": 3408,
  "gges": 3409,
  "gher": 3410,
  "ghta": 3411,
  "ghte": 3412,
  "ghts": 3413,
  "gica": 3414,
  "gina": 3415,
  "gits": 3416,
  "give": 3417,
  "glan": 3418,
  "glob": 3419,
  "gnat": 3420,
  "gnif": 3421,
  "godi": 3422,
  "gona": 3423,
  "good": 3424,
  "gopl": 3425,
  "gori": 3426,
  "gory": 3427,
  "grad": 3428,
  "gral": 3429,
  "grap": 3430,
  "grat": 3431,
  "grea": 3432,
  "gree": 3433,
  "grou": 3434,
  "grow": 3435,
  "grue": 3436,
  "gula": 3437,
  "gume": 3438,
  "hain": 3439,
  "hall": 3440,
  "hand": 3441,
  "hang": 3442,
  "happ": 3443,
  "haps": 3444,
  "hara": 3445,
  "hard": 3446,
  "harm": 3447,
  "harp": 3448,
  "hath": 3449,
  "have": 3450,
  "havi": 3451,
  "hcal": 3452,
  "heaf": 3453,
  "hear": 3454,
  "heav": 3455,
  "heck": 3456,
  "heig": 3457,
  "heir": 3458,
  "hema": 3459,
  "heme": 3460,
  "henc": 3461,
  "heor": 3462,
  "here": 3463,
  "heri": 3464,
  "herm": 3465,
  "hern": 3466,
  "hers": 3467,
  "hese": 3468,
  "hesi": 3469,
  "heta": 3470,
  "hetz": 3471,
  "hfra": 3472,
  "hful": 3473,
  "hich": 3474,
  "hiev": 3475,
  "hift": 3476,
  "high": 3477,
  "hile": 3478,
  "hing": 3479,
  "hink": 3480,
  "hism": 3481,
  "hler": 3482,
  "hlet": 3483,
  "hmet": 3484,
  "hogo": 3485,
  "hoic": 3486,
  "hold": 3487,
  "holo": 3488,
  "home": 3489,
  "homo": 3490,
  "hono": 3491,
  "hoos": 3492,
  "hort": 3493,
  "hose": 3494,
  "houg": 3495,
  "houl": 3496,
  "hout": 3497,
  "hown": 3498,
  "hows": 3499,
  "hree": 3500,
  "hrou": 3501,
  "htar": 3502,
  "hype": 3503,
  "hypo": 3504,
  "hysi": 3505,
  "iabl": 3506,
  "iago": 3507,
  "iall": 3508,
  "ials": 3509,
  "ianc": 3510,
  "iang": 3511,
  "iant": 3512,
  "iate": 3513,
  "iati": 3514,
  "iber": 3515,
  "ibil": 3516,
  "ible": 3517,
  "ibra": 3518,
  "ibut": 3519,
  "ical": 3520,
  "ican": 3521,
  "icat": 3522,
  "ices": 3523,
  "ichl": 3524,
  "ichm": 3525,
  "icie": 3526,
  "icit": 3527,
  "icte": 3528,
  "icti": 3529,
  "ictl": 3530,
  "icts": 3531,
  "icul": 3532,
  "idat": 3533,
  "idea": 3534,
  "ideh": 3535,
  "iden": 3536,
  "ider": 3537,
  "ides": 3538,
  "idet": 3539,
  "idin": 3540,
  "idue": 3541,
  "ield": 3542,
  "iema": 3543,
  "ient": 3544,
  "ieti": 3545,
  "iety": 3546,
  "ieve": 3547,
  "iffe": 3548,
  "ific": 3549,
  "ifie": 3550,
  "ifol": 3551,
  "ifor": 3552,
  "ifyi": 3553,
  "igen": 3554,
  "ighe": 3555,
  "ight": 3556,
  "igin": 3557,
  "igit": 3558,
  "igma": 3559,
  "igna": 3560,
  "igne": 3561,
  "igni": 3562,
  "igop": 3563,
  "ijec": 3564,
  "ilar": 3565,
  "ilbe": 3566,
  "ilde": 3567,
  "iled": 3568,
  "ilin": 3569,
  "ilit": 3570,
  "iliz": 3571,
  "ilon": 3572,
  "ilpo": 3573,
  "iltr": 3574,
  "imag": 3575,
  "imal": 3576,
  "imat": 3577,
  "imen": 3578,
  "imes": 3579,
  "imil": 3580,
  "imin": 3581,
  "imit": 3582,
  "imiz": 3583,
  "impl": 3584,
  "impo": 3585,
  "imum": 3586,
  "inal": 3587,
  "inan": 3588,
  "inar": 3589,
  "inat": 3590,
  "ince": 3591,
  "inci": 3592,
  "incl": 3593,
  "incr": 3594,
  "inct": 3595,
  "inde": 3596,
  "indi": 3597,
  "indu": 3598,
  "inea": 3599,
  "ined": 3600,
  "ineq": 3601,
  "iner": 3602,
  "ines": 3603,
  "infi": 3604,
  "inft": 3605,
  "inge": 3606,
  "ingl": 3607,
  "ings": 3608,
  "ingu": 3609,
  "inim": 3610,
  "inin": 3611,
  "init": 3612,
  "inje": 3613,
  "inne": 3614,
  "inom": 3615,
  "inst": 3616,
  "inte": 3617,
  "into": 3618,
  "ints": 3619,
  "inuo": 3620,
  "inus": 3621,
  "inva": 3622,
  "inve": 3623,
  "invo": 3624,
  "iodi": 3625,
  "iona": 3626,
  "ions": 3627,
  "iota": 3628,
  "ious": 3629,
  "ipal": 3630,
  "iple": 3631,
  "ipli": 3632,
  "ipti": 3633,
  "ique": 3634,
  "ircl": 3635,
  "irec": 3636,
  "ired": 3637,
  "ires": 3638,
  "iric": 3639,
  "irin": 3640,
  "irre": 3641,
  "irst": 3642,
  "irtu": 3643,
  "iscr": 3644,
  "isel": 3645,
  "isfi": 3646,
  "isfy": 3647,
  "ishe": 3648,
  "ishi": 3649,
  "isib": 3650,
  "isim": 3651,
  "isjo": 3652,
  "isms": 3653,
  "isom": 3654,
  "isor": 3655,
  "isot": 3656,
  "ista": 3657,
  "iste": 3658,
  "isti": 3659,
  "istr": 3660,
  "ists": 3661,
  "itar": 3662,
  "itel": 3663,
  "item": 3664,
  "iter": 3665,
  "ithe": 3666,
  "ithf": 3667,
  "ithi": 3668,
  "ithm": 3669,
  "itho": 3670,
  "itia": 3671,
  "itic": 3672,
  "itie": 3673,
  "itio": 3674,
  "itiv": 3675,
  "itly": 3676,
  "itse": 3677,
  "itte": 3678,
  "itti": 3679,
  "itut": 3680,
  "ival": 3681,
  "ivar": 3682,
  "ivat": 3683,
  "ived": 3684,
  "ivel": 3685,
  "iven": 3686,
  "iver": 3687,
  "ives": 3688,
  "ivia": 3689,
  "ivid": 3690,
  "ivin": 3691,
  "ivis": 3692,
  "ivit": 3693,
  "ixed": 3694,
  "izat": 3695,
  "ized": 3696,
  "izer": 3697,
  "izes": 3698,
  "izin": 3699,
  "ject": 3700,
  "join": 3701,
  "juga": 3702,
  "just": 3703,
  "kapp": 3704,
  "kern": 3705,
  "kind": 3706,
  "king": 3707,
  "know": 3708,
  "labi": 3709,
  "lace": 3710,
  "laim": 3711,
  "lain": 3712,
  "lamb": 3713,
  "land": 3714,
  "lane": 3715,
  "lang": 3716,
  "larg": 3717,
  "lari": 3718,
  "larl": 3719,
  "lass": 3720,
  "late": 3721,
  "lati": 3722,
  "lato": 3723,
  "latt": 3724,
  "lber": 3725,
  "lcul": 3726,
  "ldot": 3727,
  "ldsy": 3728,
  "lead": 3729,
  "lear": 3730,
  "leas": 3731,
  "lect": 3732,
  "left": 3733,
  "leme": 3734,
  "lemm": 3735,
  "lenc": 3736,
  "leng": 3737,
  "lent": 3738,
  "less": 3739,
  "lest": 3740,
  "lete": 3741,
  "leve": 3742,
  "lflo": 3743,
  "lgeb": 3744,
  "lian": 3745,
  "lica": 3746,
  "lici": 3747,
  "lida": 3748,
  "lies": 3749,
  "lifi": 3750,
  "lift": 3751,
  "lify": 3752,
  "lign": 3753,
  "like": 3754,
  "limi": 3755,
  "line": 3756,
  "ling": 3757,
  "lipt": 3758,
  "lish": 3759,
  "litt": 3760,
  "lity": 3761,
  "live": 3762,
  "liza": 3763,
  "lize": 3764,
  "lled": 3765,
  "ller": 3766,
  "lles": 3767,
  "llet": 3768,
  "llin": 3769,
  "llip": 3770,
  "llow": 3771,
  "lmer": 3772,
  "lmos": 3773,
  "loba": 3774,
  "loca": 3775,
  "lock": 3776,
  "locu": 3777,
  "loga": 3778,
  "logi": 3779,
  "logy": 3780,
  "lois": 3781,
  "lomo": 3782,
  "long": 3783,
  "look": 3784,
  "loor": 3785,
  "lord": 3786,
  "lose": 3787,
  "losu": 3788,
  "loto": 3789,
  "love": 3790,
  "lowe": 3791,
  "lowi": 3792,
  "lows": 3793,
  "lpha": 3794,
  "lpot": 3795,
  "lter": 3796,
  "ltip": 3797,
  "ltra": 3798,
  "luat": 3799,
  "lude": 3800,
  "lues": 3801,
  "lume": 3802,
  "lusi": 3803,
  "lute": 3804,
  "luti": 3805,
  "lvab": 3806,
  "lves": 3807,
  "lvin": 3808,
  "lway": 3809,
  "lyin": 3810,
  "lyno": 3811,
  "lysi": 3812,
  "lyti": 3813,
  "lyze": 3814,
  "made": 3815,
  "mage": 3816,
  "main": 3817,
  "make": 3818,
  "mali": 3819,
  "mall": 3820,
  "mani": 3821,
  "mann": 3822,
  "many": 3823,
  "mapp": 3824,
  "maps": 3825,
  "matc": 3826,
  "mate": 3827,
  "math": 3828,
  "mati": 3829,
  "matr": 3830,
  "maxi": 3831,
  "mbda": 3832,
  "mbed": 3833,
  "mber": 3834,
  "mbin": 3835,
  "mbol": 3836,
  "mean": 3837,
  "meas": 3838,
  "mega": 3839,
  "mens": 3840,
  "ment": 3841,
  "mera": 3842,
  "meri": 3843,
  "mete": 3844,
  "meth": 3845,
  "meti": 3846,
  "metr": 3847,
  "mial": 3848,
  "mics": 3849,
  "mifi": 3850,
  "migh": 3851,
  "mila": 3852,
  "mily": 3853,
  "mina": 3854,
  "mine": 3855,
  "ming": 3856,
  "mini": 3857,
  "minu": 3858,
  "misi": 3859,
  "miss": 3860,
  "mist": 3861,
  "miti": 3862,
  "mits": 3863,
  "mize": 3864,
  "mmer": 3865,
  "mmet": 3866,
  "mmut": 3867,
  "mode": 3868,
  "modu": 3869,
  "mody": 3870,
  "molo": 3871,
  "momo": 3872,
  "moni": 3873,
  "mono": 3874,
  "moot": 3875,
  "more": 3876,
  "morp": 3877,
  "most": 3878,
  "moti": 3879,
  "moto": 3880,
  "mpac": 3881,
  "mpar": 3882,
  "mpat": 3883,
  "mple": 3884,
  "mpli": 3885,
  "mply": 3886,
  "mpon": 3887,
  "mpos": 3888,
  "mpti": 3889,
  "mpto": 3890,
  "mpty": 3891,
  "mput": 3892,
  "much": 3893,
  "mula": 3894,
  "mult": 3895,
  "must": 3896,
  "muta": 3897,
  "nabl": 3898,
  "nald": 3899,
  "nali": 3900,
  "naly": 3901,
  "name": 3902,
  "nami": 3903,
  "nant": 3904,
  "nary": 3905,
  "nate": 3906,
  "nati": 3907,
  "nato": 3908,
  "natu": 3909,
  "nces": 3910,
  "ncip": 3911,
  "nclu": 3912,
  "ncre": 3913,
  "ncti": 3914,
  "ncto": 3915,
  "ndam": 3916,
  "ndar": 3917,
  "nded": 3918,
  "ndee": 3919,
  "nden": 3920,
  "ndep": 3921,
  "nder": 3922,
  "ndex": 3923,
  "ndic": 3924,
  "ndin": 3925,
  "ndit": 3926,
  "ndle": 3927,
  "ndom": 3928,
  "nduc": 3929,
  "near": 3930,
  "nece": 3931,
  "nect": 3932,
  "need": 3933,
  "nega": 3934,
  "nent": 3935,
  "nequ": 3936,
  "nera": 3937,
  "nerg": 3938,
  "neri": 3939,
  "ness": 3940,
  "neve": 3941,
  "nfin": 3942,
  "nfor": 3943,
  "nfty": 3944,
  "ngen": 3945,
  "nger": 3946,
  "ngla": 3947,
  "ngle": 3948,
  "ngru": 3949,
  "ngth": 3950,
  "ngul": 3951,
  "nian": 3952,
  "nica": 3953,
  "nifi": 3954,
  "nifo": 3955,
  "nilp": 3956,
  "nima": 3957,
  "nimi": 3958,
  "nimu": 3959,
  "ning": 3960,
  "nion": 3961,
  "niqu": 3962,
  "nish": 3963,
  "nita": 3964,
  "nite": 3965,
  "niti": 3966,
  "nits": 3967,
  "nity": 3968,
  "nius": 3969,
  "nive": 3970,
  "njec": 3971,
  "njug": 3972,
  "nles": 3973,
  "nmid": 3974,
  "nnec": 3975,
  "nner": 3976,
  "nnia": 3977,
  "nnot": 3978,
  "nodr": 3979,
  "nomi": 3980,
  "noni": 3981,
  "nont": 3982,
  "nonz": 3983,
  "norm": 3984,
  "nota": 3985,
  "note": 3986,
  "noth": 3987,
  "noti": 3988,
  "nown": 3989,
  "nram": 3990,
  "nseq": 3991,
  "nsfo": 3992,
  "nsid": 3993,
  "nsio": 3994,
  "nsis": 3995,
  "nsit": 3996,
  "nsla": 3997,
  "nsor": 3998,
  "nsta": 3999,
  "nste": 4000,
  "nstr": 4001,
  "nsur": 4002,
  "nswe": 4003,
  "ntab": 4004,
  "ntai": 4005,
  "ntal": 4006,
  "ntar": 4007,
  "ntat": 4008,
  "nted": 4009,
  "nteg": 4010,
  "nten": 4011,
  "nter": 4012,
  "ntia": 4013,
  "ntif": 4014,
  "ntin": 4015,
  "ntit": 4016,
  "ntle": 4017,
  "ntly": 4018,
  "ntra": 4019,
  "ntri": 4020,
  "ntro": 4021,
  "ntum": 4022,
  "numb": 4023,
  "nume": 4024,
  "nuou": 4025,
  "nval": 4026,
  "nvar": 4027,
  "nver": 4028,
  "nvex": 4029,
  "nvol": 4030,
  "nzer": 4031,
  "oach": 4032,
  "obab": 4033,
  "obal": 4034,
  "oben": 4035,
  "obia": 4036,
  "obje": 4037,
  "oble": 4038,
  "obse": 4039,
  "obta": 4040,
  "ocal": 4041,
  "occu": 4042,
  "ocia": 4043,
  "ocus": 4044,
  "odel": 4045,
  "odes": 4046,
  "odge": 4047,
  "odic": 4048,
  "odim": 4049,
  "odro": 4050,
  "oduc": 4051,
  "odul": 4052,
  "odyn": 4053,
  "oeff": 4054,
  "oesn": 4055,
  "ogar": 4056,
  "ogen": 4057,
  "ogic": 4058,
  "ogon": 4059,
  "ohom": 4060,
  "oice": 4061,
  "oinc": 4062,
  "oint": 4063,
  "ojec": 4064,
  "oken": 4065,
  "olat": 4066,
  "olds": 4067,
  "oles": 4068,
  "olic": 4069,
  "ollo": 4070,
  "olog": 4071,
  "olom": 4072,
  "olon": 4073,
  "olor": 4074,
  "olum": 4075,
  "olut": 4076,
  "olva": 4077,
  "olve": 4078,
  "olvi": 4079,
  "olyn": 4080,
  "omat": 4081,
  "ombi": 4082,
  "omeg": 4083,
  "omen": 4084,
  "omeo": 4085,
  "omes": 4086,
  "omet": 4087,
  "omia": 4088,
  "omic": 4089,
  "omin": 4090,
  "ommu": 4091,
  "omol": 4092,
  "omom": 4093,
  "omor": 4094,
  "omot": 4095,
  "ompa": 4096,
  "ompl": 4097,
  "ompo": 4098,
  "ompu": 4099,
  "onal": 4100,
  "once": 4101,
  "oncl": 4102,
  "onde": 4103,
  "ondi": 4104,
  "onds": 4105,
  "ondu": 4106,
  "onen": 4107,
  "ones": 4108,
  "onfi": 4109,
  "ongr": 4110,
  "onic": 4111,
  "onje": 4112,
  "onju": 4113,
  "only": 4114,
  "onne": 4115,
  "onod": 4116,
  "onom": 4117,
  "onor": 4118,
  "onse": 4119,
  "onsi": 4120,
  "onst": 4121,
  "onta": 4122,
  "onti": 4123,
  "ontr": 4124,
  "onve": 4125,
  "onvo": 4126,
  "onze": 4127,
  "oord": 4128,
  "oose": 4129,
  "ooth": 4130,
  "oots": 4131,
  "open": 4132,
  "oper": 4133,
  "oplu": 4134,
  "opol": 4135,
  "opri": 4136,
  "opti": 4137,
  "orbi": 4138,
  "orce": 4139,
  "orde": 4140,
  "ordi": 4141,
  "ords": 4142,
  "orel": 4143,
  "orem": 4144,
  "oreo": 4145,
  "orff": 4146,
  "oria": 4147,
  "orie": 4148,
  "orig": 4149,
  "oriz": 4150,
  "orma": 4151,
  "orms": 4152,
  "ormu": 4153,
  "orna": 4154,
  "orph": 4155,
  "orre": 4156,
  "orse": 4157,
  "orsi": 4158,
  "orte": 4159,
  "orth": 4160,
  "orus": 4161,
  "osed": 4162,
  "oses": 4163,
  "osit": 4164,
  "ossi": 4165,
  "osta": 4166,
  "osur": 4167,
  "otal": 4168,
  "otat": 4169,
  "oten": 4170,
  "otes": 4171,
  "othe": 4172,
  "otic": 4173,
  "otie": 4174,
  "otim": 4175,
  "otin": 4176,
  "otom": 4177,
  "otop": 4178,
  "oubl": 4179,
  "ough": 4180,
  "ould": 4181,
  "ound": 4182,
  "ount": 4183,
  "oups": 4184,
  "ouri": 4185,
  "ours": 4186,
  "outc": 4187,
  "oved": 4188,
  "over": 4189,
  "ovid": 4190,
  "ower": 4191,
  "owev": 4192,
  "owin": 4193,
  "owth": 4194,
  "oxed": 4195,
  "oxim": 4196,
  "pace": 4197,
  "pact": 4198,
  "pair": 4199,
  "pans": 4200,
  "para": 4201,
  "pari": 4202,
  "part": 4203,
  "path": 4204,
  "pati": 4205,
  "peak": 4206,
  "pear": 4207,
  "peci": 4208,
  "pect": 4209,
  "pend": 4210,
  "pera": 4211,
  "perb": 4212,
  "pere": 4213,
  "perf": 4214,
  "perh": 4215,
  "peri": 4216,
  "perm": 4217,
  "perp": 4218,
  "pers": 4219,
  "pert": 4220,
  "perv": 4221,
  "pher": 4222,
  "phic": 4223,
  "phis": 4224,
  "phys": 4225,
  "pica": 4226,
  "ping": 4227,
  "plac": 4228,
  "plai": 4229,
  "plan": 4230,
  "plec": 4231,
  "plem": 4232,
  "ples": 4233,
  "plet": 4234,
  "plex": 4235,
  "plic": 4236,
  "plie": 4237,
  "plif": 4238,
  "plit": 4239,
  "plus": 4240,
  "plyi": 4241,
  "pmat": 4242,
  "pmod": 4243,
  "poin": 4244,
  "pola": 4245,
  "pole": 4246,
  "polo": 4247,
  "poly": 4248,
  "pond": 4249,
  "pone": 4250,
  "port": 4251,
  "pose": 4252,
  "posi": 4253,
  "poss": 4254,
  "pote": 4255,
  "poth": 4256,
  "powe": 4257,
  "ppea": 4258,
  "pper": 4259,
  "ppin": 4260,
  "ppli": 4261,
  "pply": 4262,
  "ppor": 4263,
  "ppos": 4264,
  "ppro": 4265,
  "prec": 4266,
  "pres": 4267,
  "pret": 4268,
  "prim": 4269,
  "prin": 4270,
  "proa": 4271,
  "prob": 4272,
  "proc": 4273,
  "prod": 4274,
  "proj": 4275,
  "proo": 4276,
  "prop": 4277,
  "prov": 4278,
  "prox": 4279,
  "psil": 4280,
  "psto": 4281,
  "ptic": 4282,
  "ptim": 4283,
  "ptio": 4284,
  "ptot": 4285,
  "pure": 4286,
  "puta": 4287,
  "pute": 4288,
  "puti": 4289,
  "qqua": 4290,
  "quad": 4291,
  "qual": 4292,
  "quan": 4293,
  "quar": 4294,
  "quas": 4295,
  "quat": 4296,
  "quen": 4297,
  "ques": 4298,
  "quir": 4299,
  "quiv": 4300,
  "quot": 4301,
  "rabl": 4302,
  "rabo": 4303,
  "race": 4304,
  "ract": 4305,
  "rade": 4306,
  "radi": 4307,
  "rage": 4308,
  "raic": 4309,
  "rain": 4310,
  "rali": 4311,
  "rall": 4312,
  "rame": 4313,
  "rami": 4314,
  "ranc": 4315,
  "rand": 4316,
  "rang": 4317,
  "rank": 4318,
  "rans": 4319,
  "raph": 4320,
  "rass": 4321,
  "rate": 4322,
  "rati": 4323,
  "rato": 4324,
  "ratu": 4325,
  "rbit": 4326,
  "rbol": 4327,
  "rces": 4328,
  "rcle": 4329,
  "rder": 4330,
  "rdin": 4331,
  "read": 4332,
  "real": 4333,
  "reas": 4334,
  "reat": 4335,
  "reci": 4336,
  "reco": 4337,
  "rect": 4338,
  "recu": 4339,
  "redu": 4340,
  "rees": 4341,
  "refi": 4342,
  "refo": 4343,
  "refu": 4344,
  "regu": 4345,
  "rela": 4346,
  "reli": 4347,
  "rell": 4348,
  "rema": 4349,
  "renc": 4350,
  "rent": 4351,
  "reov": 4352,
  "repr": 4353,
  "reps": 4354,
  "requ": 4355,
  "rese": 4356,
  "resi": 4357,
  "reso": 4358,
  "resp": 4359,
  "ress": 4360,
  "rest": 4361,
  "resu": 4362,
  "reta": 4363,
  "rete": 4364,
  "rfac": 4365,
  "rfec": 4366,
  "rflo": 4367,
  "rgen": 4368,
  "rger": 4369,
  "rges": 4370,
  "rgod": 4371,
  "rgum": 4372,
  "rhap": 4373,
  "riab": 4374,
  "rial": 4375,
  "rian": 4376,
  "riat": 4377,
  "ribu": 4378,
  "rica": 4379,
  "rice": 4380,
  "rich": 4381,
  "rics": 4382,
  "rict": 4383,
  "rien": 4384,
  "rier": 4385,
  "ries": 4386,
  "riet": 4387,
  "rifi": 4388,
  "rify": 4389,
  "righ": 4390,
  "rigi": 4391,
  "rily": 4392,
  "rime": 4393,
  "rimi": 4394,
  "rinc": 4395,
  "ring": 4396,
  "riod": 4397,
  "ripl": 4398,
  "rise": 4399,
  "rist": 4400,
  "rite": 4401,
  "rith": 4402,
  "riti": 4403,
  "ritt": 4404,
  "rity": 4405,
  "riva": 4406,
  "rive": 4407,
  "rivi": 4408,
  "riza": 4409,
  "rize": 4410,
  "rjec": 4411,
  "rlin": 4412,
  "rmal": 4413,
  "rmat": 4414,
  "rmin": 4415,
  "rmod": 4416,
  "rmon": 4417,
  "rmor": 4418,
  "rmul": 4419,
  "rmut": 4420,
  "rnam": 4421,
  "rnat": 4422,
  "rnel": 4423,
  "roac": 4424,
  "roba": 4425,
  "robe": 4426,
  "robl": 4427,
  "roce": 4428,
  "rodu": 4429,
  "roje": 4430,
  "romo": 4431,
  "romy": 4432,
  "rong": 4433,
  "roof": 4434,
  "root": 4435,
  "rope": 4436,
  "ropy": 4437,
  "ross": 4438,
  "rost": 4439,
  "roth": 4440,
  "roug": 4441,
  "roun": 4442,
  "roup": 4443,
  "rous": 4444,
  "rove": 4445,
  "rovi": 4446,
  "rows": 4447,
  "rowt": 4448,
  "roxi": 4449,
  "rphi": 4450,
  "rpre": 4451,
  "rrec": 4452,
  "rred": 4453,
  "rren": 4454,
  "rres": 4455,
  "rror": 4456,
  "rrow": 4457,
  "rsal": 4458,
  "rsec": 4459,
  "rsel": 4460,
  "rsio": 4461,
  "rsso": 4462,
  "rsta": 4463,
  "rtai": 4464,
  "rted": 4465,
  "rtex": 4466,
  "rthe": 4467,
  "rtho": 4468,
  "rtia": 4469,
  "rtic": 4470,
  "rtie": 4471,
  "rtin": 4472,
  "rtio": 4473,
  "rtit": 4474,
  "rtua": 4475,
  "ruct": 4476,
  "ruen": 4477,
  "rval": 4478,
  "rvat": 4479,
  "rved": 4480,
  "rver": 4481,
  "rves": 4482,
  "rvin": 4483,
  "rwis": 4484,
  "same": 4485,
  "sari": 4486,
  "sati": 4487,
  "sawa": 4488,
  "says": 4489,
  "scal": 4490,
  "scen": 4491,
  "sche": 4492,
  "scre": 4493,
  "scri": 4494,
  "sdor": 4495,
  "seco": 4496,
  "sect": 4497,
  "seem": 4498,
  "self": 4499,
  "sely": 4500,
  "semi": 4501,
  "sens": 4502,
  "sent": 4503,
  "sepa": 4504,
  "sequ": 4505,
  "seri": 4506,
  "serv": 4507,
  "sete": 4508,
  "setm": 4509,
  "sets": 4510,
  "sfie": 4511,
  "sfor": 4512,
  "sfyi": 4513,
  "shal": 4514,
  "shar": 4515,
  "shea": 4516,
  "shes": 4517,
  "shif": 4518,
  "shin": 4519,
  "shor": 4520,
  "shou": 4521,
  "show": 4522,
  "sian": 4523,
  "sibi": 4524,
  "sibl": 4525,
  "sica": 4526,
  "sics": 4527,
  "side": 4528,
  "sidu": 4529,
  "sifi": 4530,
  "sigm": 4531,
  "sign": 4532,
  "silo": 4533,
  "simi": 4534,
  "simp": 4535,
  "sinc": 4536,
  "sing": 4537,
  "sion": 4538,
  "sist": 4539,
  "siti": 4540,
  "sity": 4541,
  "size": 4542,
  "sjoi": 4543,
  "slat": 4544,
  "smal": 4545,
  "smoo": 4546,
  "soci": 4547,
  "sola": 4548,
  "solu": 4549,
  "solv": 4550,
  "some": 4551,
  "somo": 4552,
  "sors": 4553,
  "spac": 4554,
  "span": 4555,
  "spea": 4556,
  "spec": 4557,
  "sphe": 4558,
  "spin": 4559,
  "spli": 4560,
  "spon": 4561,
  "sqrt": 4562,
  "squa": 4563,
  "ssar": 4564,
  "ssed": 4565,
  "ssen": 4566,
  "sses": 4567,
  "ssia": 4568,
  "ssib": 4569,
  "ssic": 4570,
  "ssif": 4571,
  "ssin": 4572,
  "ssio": 4573,
  "ssoc": 4574,
  "sson": 4575,
  "ssum": 4576,
  "stab": 4577,
  "stac": 4578,
  "stan": 4579,
  "star": 4580,
  "stat": 4581,
  "sted": 4582,
  "stei": 4583,
  "stem": 4584,
  "sten": 4585,
  "step": 4586,
  "ster": 4587,
  "stic": 4588,
  "stil": 4589,
  "stim": 4590,
  "stin": 4591,
  "stit": 4592,
  "stol": 4593,
  "stra": 4594,
  "stri": 4595,
  "stro": 4596,
  "stru": 4597,
  "stud": 4598,
  "suba": 4599,
  "subg": 4600,
  "subs": 4601,
  "such": 4602,
  "suff": 4603,
  "sugg": 4604,
  "sult": 4605,
  "sume": 4606,
  "summ": 4607,
  "sump": 4608,
  "sums": 4609,
  "supe": 4610,
  "supp": 4611,
  "sura": 4612,
  "sure": 4613,
  "surf": 4614,
  "swer": 4615,
  "symb": 4616,
  "symm": 4617,
  "symp": 4618,
  "syst": 4619,
  "szti": 4620,
  "tabi": 4621,
  "tabl": 4622,
  "tack": 4623,
  "tail": 4624,
  "tain": 4625,
  "take": 4626,
  "tale": 4627,
  "tall": 4628,
  "tanc": 4629,
  "tand": 4630,
  "tang": 4631,
  "tant": 4632,
  "tarr": 4633,
  "tary": 4634,
  "tate": 4635,
  "tati": 4636,
  "tche": 4637,
  "tchi": 4638,
  "tcom": 4639,
  "tege": 4640,
  "tego": 4641,
  "tegr": 4642,
  "tein": 4643,
  "tell": 4644,
  "tely": 4645,
  "teme": 4646,
  "tenc": 4647,
  "tend": 4648,
  "tens": 4649,
  "tent": 4650,
  "teps": 4651,
  "tera": 4652,
  "tere": 4653,
  "teri": 4654,
  "term": 4655,
  "tern": 4656,
  "terp": 4657,
  "ters": 4658,
  "terv": 4659,
  "test": 4660,
  "text": 4661,
  "tfra": 4662,
  "than": 4663,
  "that": 4664,
  "thbb": 4665,
  "thbf": 4666,
  "thca": 4667,
  "thee": 4668,
  "thei": 4669,
  "them": 4670,
  "then": 4671,
  "theo": 4672,
  "ther": 4673,
  "thes": 4674,
  "thet": 4675,
  "they": 4676,
  "thfr": 4677,
  "thfu": 4678,
  "thin": 4679,
  "this": 4680,
  "thme": 4681,
  "thod": 4682,
  "thog": 4683,
  "thos": 4684,
  "thou": 4685,
  "thre": 4686,
  "thrm": 4687,
  "thro": 4688,
  "thus": 4689,
  "tial": 4690,
  "tibl": 4691,
  "tica": 4692,
  "tice": 4693,
  "tics": 4694,
  "ticu": 4695,
  "tien": 4696,
  "ties": 4697,
  "tifi": 4698,
  "tify": 4699,
  "tild": 4700,
  "till": 4701,
  "tima": 4702,
  "time": 4703,
  "tinc": 4704,
  "ting": 4705,
  "tinu": 4706,
  "tion": 4707,
  "tipl": 4708,
  "tisf": 4709,
  "titi": 4710,
  "titu": 4711,
  "tity": 4712,
  "tive": 4713,
  "tivi": 4714,
  "tmin": 4715,
  "tnes": 4716,
  "toke": 4717,
  "tomi": 4718,
  "tomo": 4719,
  "topo": 4720,
  "topy": 4721,
  "tori": 4722,
  "torn": 4723,
  "tors": 4724,
  "toru": 4725,
  "tota": 4726,
  "toti": 4727,
  "trac": 4728,
  "trad": 4729,
  "trai": 4730,
  "tral": 4731,
  "tran": 4732,
  "trat": 4733,
  "tria": 4734,
  "trib": 4735,
  "tric": 4736,
  "trie": 4737,
  "trip": 4738,
  "triv": 4739,
  "trix": 4740,
  "trol": 4741,
  "tron": 4742,
  "trop": 4743,
  "truc": 4744,
  "true": 4745,
  "trum": 4746,
  "tsel": 4747,
  "tten": 4748,
  "tter": 4749,
  "ttic": 4750,
  "ttin": 4751,
  "ttle": 4752,
  "tual": 4753,
  "tura": 4754,
  "ture": 4755,
  "turn": 4756,
  "twee": 4757,
  "twis": 4758,
  "type": 4759,
  "typi": 4760,
  "uadr": 4761,
  "uali": 4762,
  "uall": 4763,
  "uals": 4764,
  "uant": 4765,
  "uare": 4766,
  "uasi": 4767,
  "uate": 4768,
  "uati": 4769,
  "ubgr": 4770,
  "uble": 4771,
  "ubse": 4772,
  "ubsp": 4773,
  "ubst": 4774,
  "uced": 4775,
  "uces": 4776,
  "ucib": 4777,
  "ucte": 4778,
  "ucti": 4779,
  "ucts": 4780,
  "uctu": 4781,
  "uenc": 4782,
  "uene": 4783,
  "uent": 4784,
  "uffi": 4785,
  "ugac": 4786,
  "ugat": 4787,
  "ugge": 4788,
  "ught": 4789,
  "uire": 4790,
  "uiva": 4791,
  "ular": 4792,
  "ulat": 4793,
  "uler": 4794,
  "ules": 4795,
  "ulle": 4796,
  "ully": 4797,
  "ulti": 4798,
  "ults": 4799,
  "umbe": 4800,
  "umen": 4801,
  "umer": 4802,
  "umma": 4803,
  "umpt": 4804,
  "unct": 4805,
  "unda": 4806,
  "unde": 4807,
  "undl": 4808,
  "unds": 4809,
  "unif": 4810,
  "unio": 4811,
  "uniq": 4812,
  "unit": 4813,
  "univ": 4814,
  "unle": 4815,
  "unra": 4816,
  "unta": 4817,
  "unte": 4818,
  "unti": 4819,
  "unts": 4820,
  "uoti": 4821,
  "uous": 4822,
  "uper": 4823,
  "upon": 4824,
  "uppe": 4825,
  "uppo": 4826,
  "urab": 4827,
  "ural": 4828,
  "ures": 4829,
  "urfa": 4830,
  "urie": 4831,
  "urje": 4832,
  "urre": 4833,
  "urse": 4834,
  "urth": 4835,
  "urva": 4836,
  "urve": 4837,
  "usdo": 4838,
  "uses": 4839,
  "usin": 4840,
  "usio": 4841,
  "uszt": 4842,
  "utat": 4843,
  "utco": 4844,
  "uted": 4845,
  "utes": 4846,
  "utin": 4847,
  "utio": 4848,
  "utom": 4849,
  "vabl": 4850,
  "vale": 4851,
  "vali": 4852,
  "valu": 4853,
  "vani": 4854,
  "vare": 4855,
  "vari": 4856,
  "varp": 4857,
  "vati": 4858,
  "vatu": 4859,
  "vect": 4860,
  "vely": 4861,
  "vent": 4862,
  "vera": 4863,
  "verg": 4864,
  "veri": 4865,
  "verl": 4866,
  "vers": 4867,
  "vert": 4868,
  "very": 4869,
  "vial": 4870,
  "vide": 4871,
  "vidi": 4872,
  "ving": 4873,
  "vior": 4874,
  "virt": 4875,
  "visi": 4876,
  "viso": 4877,
  "vity": 4878,
  "volu": 4879,
  "volv": 4880,
  "want": 4881,
  "ward": 4882,
  "wasa": 4883,
  "ways": 4884,
  "weak": 4885,
  "wedg": 4886,
  "ween": 4887,
  "weig": 4888,
  "well": 4889,
  "were": 4890,
  "wers": 4891,
  "weve": 4892,
  "what": 4893,
  "when": 4894,
  "wher": 4895,
  "whic": 4896,
  "whil": 4897,
  "whos": 4898,
  "wide": 4899,
  "will": 4900,
  "wing": 4901,
  "wise": 4902,
  "wist": 4903,
  "with": 4904,
  "word": 4905,
  "work": 4906,
  "woul": 4907,
  "writ": 4908,
  "xact": 4909,
  "xami": 4910,
  "xamp": 4911,
  "xcep": 4912,
  "xima": 4913,
  "ximu": 4914,
  "xist": 4915,
  "xity": 4916,
  "xpan": 4917,
  "xpec": 4918,
  "xpla": 4919,
  "xpli": 4920,
  "xpon": 4921,
  "xpre": 4922,
  "xtbf": 4923,
  "xten": 4924,
  "ycle": 4925,
  "ycli": 4926,
  "yclo": 4927,
  "yiel": 4928,
  "ying": 4929,
  "ylow": 4930,
  "ymbo": 4931,
  "ymme": 4932,
  "ympl": 4933,
  "ympt": 4934,
  "ynam": 4935,
  "ynom": 4936,
  "your": 4937,
  "yper": 4938,
  "ypic": 4939,
  "ypot": 4940,
  "ysic": 4941,
  "ysis": 4942,
  "yste": 4943,
  "ysto": 4944,
  "ytic": 4945,
  "zati": 4946,
  "zero": 4947,
  "zeta": 4948,
  "zing": 4949,
  "ztig": 4950,
  "Kähl": 4951,
  "chmü": 4952,
  "hmül": 4953,
  "müll": 4954,
  "ähle": 4955,
  "ülle": 4956,
  "Actua": 4957,
  "After": 4958,
  "Analy": 4959,
  "Apply": 4960,
  "Assum": 4961,
  "Becau": 4962,
  "Borel": 4963,
  "Bound": 4964,
  "Calab": 4965,
  "Calcu": 4966,
  "Chara": 4967,
  "Check": 4968,
  "Chern": 4969,
  "Class": 4970,
  "Combi": 4971,
  "Compu": 4972,
  "Concl": 4973,
  "Conne": 4974,
  "Consi": 4975,
  "Const": 4976,
  "Contr": 4977,
  "Corre": 4978,
  "Count": 4979,
  "Defin": 4980,
  "Delta": 4981,
  "Deriv": 4982,
  "Deter": 4983,
  "Diric": 4984,
  "Elect": 4985,
  "Euler": 4986,
  "Final": 4987,
  "First": 4988,
  "Fouri": 4989,
  "Frobe": 4990,
  "Furth": 4991,
  "Galoi": 4992,
  "Gamma": 4993,
  "Gauss": 4994,
  "Gener": 4995,
  "Given": 4996,
  "Group": 4997,
  "Hecke": 4998,
  "Hence": 4999,
  "Hilbe": 5000,
  "Hodge": 5001,
  "Howev": 5002,
  "Ident": 5003,
  "Inter": 5004,
  "Iwasa": 5005,
  "Jacob": 5006,
  "Lambd": 5007,
  "Lefsc": 5008,
  "Luszt": 5009,
  "Moreo": 5010,
  "Omega": 5011,
  "Perha": 5012,
  "Peter": 5013,
  "Proof": 5014,
  "Prove": 5015,
  "Relat": 5016,
  "Riema": 5017,
  "Right": 5018,
  "Seibe": 5019,
  "Selme": 5020,
  "Setup": 5021,
  "Sigma": 5022,
  "Simpl": 5023,
  "Since": 5024,
  "Speci": 5025,
  "Sprin": 5026,
  "Struc": 5027,
  "Suppo": 5028,
  "Sylow": 5029,
  "Teich": 5030,
  "Theor": 5031,
  "There": 5032,
  "These": 5033,
  "Theta": 5034,
  "Under": 5035,
  "Using": 5036,
  "Verif": 5037,
  "Witte": 5038,
  "abeli": 5039,
  "abili": 5040,
  "ablis": 5041,
  "aboli": 5042,
  "about": 5043,
  "above": 5044,
  "absol": 5045,
  "achie": 5046,
  "acobi": 5047,
  "acter": 5048,
  "actin": 5049,
  "actio": 5050,
  "actly": 5051,
  "actor": 5052,
  "addit": 5053,
  "adict": 5054,
  "ading": 5055,
  "adius": 5056,
  "adjoi": 5057,
  "admit": 5058,
  "adrat": 5059,
  "affin": 5060,
  "after": 5061,
  "again": 5062,
  "agona": 5063,
  "ained": 5064,
  "ainin": 5065,
  "aints": 5066,
  "airin": 5067,
  "aithf": 5068,
  "aking": 5069,
  "alabi": 5070,
  "alcul": 5071,
  "alenc": 5072,
  "alent": 5073,
  "algeb": 5074,
  "alida": 5075,
  "aling": 5076,
  "ality": 5077,
  "aliza": 5078,
  "alize": 5079,
  "alles": 5080,
  "allow": 5081,
  "almos": 5082,
  "alois": 5083,
  "along": 5084,
  "alpha": 5085,
  "aluat": 5086,
  "alues": 5087,
  "alway": 5088,
  "alysi": 5089,
  "alyti": 5090,
  "alyze": 5091,
  "ambda": 5092,
  "ament": 5093,
  "amete": 5094,
  "amics": 5095,
  "amifi": 5096,
  "amily": 5097,
  "ample": 5098,
  "analy": 5099,
  "andar": 5100,
  "andin": 5101,
  "andom": 5102,
  "angen": 5103,
  "angle": 5104,
  "anifo": 5105,
  "anish": 5106,
  "annia": 5107,
  "annot": 5108,
  "anoni": 5109,
  "ansfo": 5110,
  "ansio": 5111,
  "ansit": 5112,
  "ansla": 5113,
  "answe": 5114,
  "antit": 5115,
  "antum": 5116,
  "appea": 5117,
  "appin": 5118,
  "appli": 5119,
  "appro": 5120,
  "apsto": 5121,
  "arabo": 5122,
  "aract": 5123,
  "arame": 5124,
  "arefu": 5125,
  "areps": 5126,
  "arges": 5127,
  "argum": 5128,
  "arian": 5129,
  "ariat": 5130,
  "aries": 5131,
  "ariet": 5132,
  "arily": 5133,
  "arith": 5134,
  "arity": 5135,
  "armon": 5136,
  "arphi": 5137,
  "arrow": 5138,
  "artia": 5139,
  "artic": 5140,
  "artit": 5141,
  "asawa": 5142,
  "asing": 5143,
  "asses": 5144,
  "assic": 5145,
  "assif": 5146,
  "assoc": 5147,
  "assum": 5148,
  "asura": 5149,
  "asure": 5150,
  "asymp": 5151,
  "atego": 5152,
  "ately": 5153,
  "ateme": 5154,
  "athbb": 5155,
  "athbf": 5156,
  "athca": 5157,
  "athem": 5158,
  "ather": 5159,
  "athfr": 5160,
  "athrm": 5161,
  "atica": 5162,
  "atics": 5163,
  "ating": 5164,
  "ation": 5165,
  "atisf": 5166,
  "ative": 5167,
  "atorn": 5168,
  "ators": 5169,
  "atric": 5170,
  "atrix": 5171,
  "atter": 5172,
  "attic": 5173,
  "atura": 5174,
  "ature": 5175,
  "autom": 5176,
  "avera": 5177,
  "avior": 5178,
  "axima": 5179,
  "aximu": 5180,
  "babil": 5181,
  "basis": 5182,
  "becau": 5183,
  "becom": 5184,
  "beddi": 5185,
  "begin": 5186,
  "behav": 5187,
  "being": 5188,
  "belia": 5189,
  "beniu": 5190,
  "betwe": 5191,
  "bgrou": 5192,
  "bigop": 5193,
  "bijec": 5194,
  "bilit": 5195,
  "biliz": 5196,
  "binat": 5197,
  "binin": 5198,
  "binom": 5199,
  "bject": 5200,
  "blish": 5201,
  "block": 5202,
  "bolic": 5203,
  "bound": 5204,
  "boxed": 5205,
  "braic": 5206,
  "bserv": 5207,
  "bsete": 5208,
  "bsolu": 5209,
  "bspac": 5210,
  "btain": 5211,
  "bulle": 5212,
  "bundl": 5213,
  "butio": 5214,
  "calar": 5215,
  "calcu": 5216,
  "caliz": 5217,
  "cally": 5218,
  "cance": 5219,
  "canno": 5220,
  "canon": 5221,
  "caref": 5222,
  "cases": 5223,
  "categ": 5224,
  "catio": 5225,
  "cativ": 5226,
  "cause": 5227,
  "cdots": 5228,
  "cente": 5229,
  "centr": 5230,
  "certa": 5231,
  "cessa": 5232,
  "chang": 5233,
  "chara": 5234,
  "check": 5235,
  "chetz": 5236,
  "chiev": 5237,
  "ching": 5238,
  "chlet": 5239,
  "choic": 5240,
  "choos": 5241,
  "ciate": 5242,
  "cible": 5243,
  "cient": 5244,
  "cific": 5245,
  "cipal": 5246,
  "ciple": 5247,
  "circl": 5248,
  "cisel": 5249,
  "citly": 5250,
  "cking": 5251,
  "claim": 5252,
  "class": 5253,
  "close": 5254,
  "closu": 5255,
  "cloto": 5256,
  "clude": 5257,
  "clusi": 5258,
  "cobia": 5259,
  "codim": 5260,
  "coeff": 5261,
  "cohom": 5262,
  "combi": 5263,
  "comes": 5264,
  "commu": 5265,
  "compa": 5266,
  "compl": 5267,
  "compo": 5268,
  "compu": 5269,
  "concl": 5270,
  "condi": 5271,
  "confi": 5272,
  "congr": 5273,
  "conje": 5274,
  "conju": 5275,
  "conne": 5276,
  "consi": 5277,
  "const": 5278,
  "conta": 5279,
  "conti": 5280,
  "contr": 5281,
  "conve": 5282,
  "coord": 5283,
  "corre": 5284,
  "could": 5285,
  "count": 5286,
  "cover": 5287,
  "creas": 5288,
  "crete": 5289,
  "crimi": 5290,
  "criti": 5291,
  "cross": 5292,
  "cteri": 5293,
  "cters": 5294,
  "cting": 5295,
  "ction": 5296,
  "ctive": 5297,
  "ctori": 5298,
  "ctors": 5299,
  "ctral": 5300,
  "ctrum": 5301,
  "ctual": 5302,
  "cture": 5303,
  "cular": 5304,
  "culat": 5305,
  "curre": 5306,
  "curva": 5307,
  "curve": 5308,
  "cycle": 5309,
  "cycli": 5310,
  "cyclo": 5311,
  "damen": 5312,
  "dated": 5313,
  "dding": 5314,
  "dditi": 5315,
  "deals": 5316,
  "decom": 5317,
  "defin": 5318,
  "degen": 5319,
  "degre": 5320,
  "dehat": 5321,
  "delta": 5322,
  "dence": 5323,
  "denot": 5324,
  "dense": 5325,
  "densi": 5326,
  "denti": 5327,
  "depen": 5328,
  "dered": 5329,
  "deriv": 5330,
  "derst": 5331,
  "desic": 5332,
  "deter": 5333,
  "detil": 5334,
  "diago": 5335,
  "dicti": 5336,
  "diffe": 5337,
  "digit": 5338,
  "dimen": 5339,
  "dinat": 5340,
  "direc": 5341,
  "discr": 5342,
  "disjo": 5343,
  "dista": 5344,
  "disti": 5345,
  "distr": 5346,
  "ditio": 5347,
  "divid": 5348,
  "divis": 5349,
  "djoin": 5350,
  "dmits": 5351,
  "doesn": 5352,
  "domin": 5353,
  "doubl": 5354,
  "drati": 5355,
  "dromy": 5356,
  "dsymb": 5357,
  "duali": 5358,
  "duced": 5359,
  "duces": 5360,
  "ducib": 5361,
  "ducti": 5362,
  "ducts": 5363,
  "dular": 5364,
  "dules": 5365,
  "dynam": 5366,
  "eadin": 5367,
  "easin": 5368,
  "easur": 5369,
  "eaves": 5370,
  "ebrai": 5371,
  "ecaus": 5372,
  "ecess": 5373,
  "ecial": 5374,
  "ecifi": 5375,
  "ecise": 5376,
  "ecome": 5377,
  "ecomp": 5378,
  "econd": 5379,
  "econs": 5380,
  "ected": 5381,
  "ectic": 5382,
  "ectio": 5383,
  "ectiv": 5384,
  "ectly": 5385,
  "ector": 5386,
  "ectra": 5387,
  "ectro": 5388,
  "ectru": 5389,
  "ectur": 5390,
  "ecurr": 5391,
  "eddin": 5392,
  "edges": 5393,
  "educe": 5394,
  "educi": 5395,
  "educt": 5396,
  "effec": 5397,
  "effic": 5398,
  "efine": 5399,
  "efini": 5400,
  "eflec": 5401,
  "efore": 5402,
  "eform": 5403,
  "efsch": 5404,
  "egati": 5405,
  "egene": 5406,
  "egers": 5407,
  "egory": 5408,
  "egral": 5409,
  "egree": 5410,
  "egula": 5411,
  "ehavi": 5412,
  "eiber": 5413,
  "eichm": 5414,
  "eigen": 5415,
  "eight": 5416,
  "eithe": 5417,
  "elate": 5418,
  "elati": 5419,
  "eleme": 5420,
  "elian": 5421,
  "ellip": 5422,
  "elmer": 5423,
  "emain": 5424,
  "emann": 5425,
  "emati": 5426,
  "embed": 5427,
  "ement": 5428,
  "emisi": 5429,
  "empty": 5430,
  "ences": 5431,
  "enden": 5432,
  "endin": 5433,
  "enera": 5434,
  "energ": 5435,
  "eneri": 5436,
  "eness": 5437,
  "ength": 5438,
  "enius": 5439,
  "enote": 5440,
  "ensio": 5441,
  "ensit": 5442,
  "ensor": 5443,
  "ensur": 5444,
  "ental": 5445,
  "entar": 5446,
  "entat": 5447,
  "ented": 5448,
  "enter": 5449,
  "entia": 5450,
  "entif": 5451,
  "entit": 5452,
  "ently": 5453,
  "entra": 5454,
  "entro": 5455,
  "enval": 5456,
  "eodes": 5457,
  "eomet": 5458,
  "eomor": 5459,
  "eorem": 5460,
  "eover": 5461,
  "epara": 5462,
  "epend": 5463,
  "epres": 5464,
  "epsil": 5465,
  "equal": 5466,
  "equat": 5467,
  "equen": 5468,
  "equir": 5469,
  "equiv": 5470,
  "erage": 5471,
  "erali": 5472,
  "erate": 5473,
  "erati": 5474,
  "erato": 5475,
  "erbol": 5476,
  "erefo": 5477,
  "erell": 5478,
  "erenc": 5479,
  "erent": 5480,
  "erfec": 5481,
  "ergen": 5482,
  "erges": 5483,
  "erhap": 5484,
  "erica": 5485,
  "eries": 5486,
  "erifi": 5487,
  "erify": 5488,
  "ering": 5489,
  "eriod": 5490,
  "erist": 5491,
  "eriva": 5492,
  "erive": 5493,
  "erlin": 5494,
  "ermin": 5495,
  "ermod": 5496,
  "ermor": 5497,
  "ermut": 5498,
  "ernat": 5499,
  "ernel": 5500,
  "erpre": 5501,
  "error": 5502,
  "ersal": 5503,
  "ersec": 5504,
  "ersio": 5505,
  "ersso": 5506,
  "ersta": 5507,
  "ertai": 5508,
  "ertex": 5509,
  "ertic": 5510,
  "ertie": 5511,
  "erval": 5512,
  "erved": 5513,
  "erver": 5514,
  "erves": 5515,
  "ervin": 5516,
  "esent": 5517,
  "eserv": 5518,
  "esics": 5519,
  "esidu": 5520,
  "esolu": 5521,
  "espec": 5522,
  "espon": 5523,
  "essar": 5524,
  "essen": 5525,
  "essio": 5526,
  "estab": 5527,
  "estim": 5528,
  "estri": 5529,
  "esult": 5530,
  "etail": 5531,
  "etati": 5532,
  "etely": 5533,
  "eterm": 5534,
  "eters": 5535,
  "ether": 5536,
  "ethin": 5537,
  "ethod": 5538,
  "eties": 5539,
  "etild": 5540,
  "etmin": 5541,
  "etric": 5542,
  "etter": 5543,
  "etwee": 5544,
  "every": 5545,
  "exact": 5546,
  "exami": 5547,
  "examp": 5548,
  "excep": 5549,
  "exist": 5550,
  "expan": 5551,
  "expec": 5552,
  "expla": 5553,
  "expli": 5554,
  "expon": 5555,
  "expre": 5556,
  "extbf": 5557,
  "exten": 5558,
  "faces": 5559,
  "facto": 5560,
  "faith": 5561,
  "false": 5562,
  "famil": 5563,
  "fathe": 5564,
  "fecti": 5565,
  "feomo": 5566,
  "feren": 5567,
  "ffect": 5568,
  "ffeom": 5569,
  "ffere": 5570,
  "ffici": 5571,
  "ffine": 5572,
  "fiber": 5573,
  "fical": 5574,
  "fican": 5575,
  "ficat": 5576,
  "ficie": 5577,
  "field": 5578,
  "filtr": 5579,
  "fined": 5580,
  "finit": 5581,
  "first": 5582,
  "fixed": 5583,
  "flect": 5584,
  "floor": 5585,
  "folds": 5586,
  "follo": 5587,
  "force": 5588,
  "forma": 5589,
  "forms": 5590,
  "formu": 5591,
  "fract": 5592,
  "fsche": 5593,
  "fully": 5594,
  "funct": 5595,
  "funda": 5596,
  "fying": 5597,
  "gamma": 5598,
  "garit": 5599,
  "gatio": 5600,
  "gativ": 5601,
  "gebra": 5602,
  "gence": 5603,
  "gener": 5604,
  "genus": 5605,
  "genva": 5606,
  "geode": 5607,
  "geome": 5608,
  "gests": 5609,
  "ggest": 5610,
  "ghtar": 5611,
  "gical": 5612,
  "given": 5613,
  "gives": 5614,
  "globa": 5615,
  "gnatu": 5616,
  "gnifi": 5617,
  "godic": 5618,
  "gonal": 5619,
  "goplu": 5620,
  "graph": 5621,
  "great": 5622,
  "grees": 5623,
  "group": 5624,
  "grows": 5625,
  "growt": 5626,
  "gruen": 5627,
  "gular": 5628,
  "gulat": 5629,
  "gumen": 5630,
  "hange": 5631,
  "harac": 5632,
  "harmo": 5633,
  "havio": 5634,
  "heart": 5635,
  "heave": 5636,
  "heigh": 5637,
  "hemat": 5638,
  "hence": 5639,
  "heore": 5640,
  "heory": 5641,
  "heref": 5642,
  "heric": 5643,
  "hermo": 5644,
  "hesis": 5645,
  "hfrak": 5646,
  "hieve": 5647,
  "highe": 5648,
  "hisms": 5649,
  "hmeti": 5650,
  "hogon": 5651,
  "hoice": 5652,
  "holds": 5653,
  "holom": 5654,
  "homol": 5655,
  "homom": 5656,
  "homot": 5657,
  "hoose": 5658,
  "hough": 5659,
  "hould": 5660,
  "hroug": 5661,
  "htarr": 5662,
  "hyper": 5663,
  "hypot": 5664,
  "hysic": 5665,
  "iable": 5666,
  "iagon": 5667,
  "ially": 5668,
  "iance": 5669,
  "iangl": 5670,
  "iants": 5671,
  "iated": 5672,
  "iatio": 5673,
  "iberg": 5674,
  "ibili": 5675,
  "ibute": 5676,
  "ibuti": 5677,
  "icall": 5678,
  "icanc": 5679,
  "icati": 5680,
  "ichle": 5681,
  "icien": 5682,
  "icitl": 5683,
  "icity": 5684,
  "ictio": 5685,
  "ictly": 5686,
  "icula": 5687,
  "idate": 5688,
  "ideal": 5689,
  "ideha": 5690,
  "ident": 5691,
  "ideti": 5692,
  "iding": 5693,
  "ields": 5694,
  "ieman": 5695,
  "ienta": 5696,
  "iente": 5697,
  "ientl": 5698,
  "ients": 5699,
  "ietie": 5700,
  "ieved": 5701,
  "iffeo": 5702,
  "iffer": 5703,
  "ifica": 5704,
  "ified": 5705,
  "ifold": 5706,
  "iform": 5707,
  "ifyin": 5708,
  "igenv": 5709,
  "igher": 5710,
  "ighta": 5711,
  "ights": 5712,
  "ignat": 5713,
  "ignif": 5714,
  "igopl": 5715,
  "iject": 5716,
  "ilarl": 5717,
  "ilber": 5718,
  "ility": 5719,
  "ilize": 5720,
  "ilpot": 5721,
  "iltra": 5722,
  "image": 5723,
  "imate": 5724,
  "imati": 5725,
  "imens": 5726,
  "imila": 5727,
  "imina": 5728,
  "imiti": 5729,
  "imize": 5730,
  "imple": 5731,
  "impli": 5732,
  "imply": 5733,
  "impos": 5734,
  "inant": 5735,
  "inary": 5736,
  "inate": 5737,
  "inati": 5738,
  "inato": 5739,
  "incip": 5740,
  "inclu": 5741,
  "incre": 5742,
  "indee": 5743,
  "indep": 5744,
  "index": 5745,
  "induc": 5746,
  "inear": 5747,
  "inequ": 5748,
  "infin": 5749,
  "infty": 5750,
  "inger": 5751,
  "ingle": 5752,
  "ingul": 5753,
  "inima": 5754,
  "inimi": 5755,
  "inimu": 5756,
  "ining": 5757,
  "inite": 5758,
  "initi": 5759,
  "injec": 5760,
  "inner": 5761,
  "integ": 5762,
  "inter": 5763,
  "inuou": 5764,
  "invar": 5765,
  "inver": 5766,
  "invol": 5767,
  "iodic": 5768,
  "ional": 5769,
  "iples": 5770,
  "iplic": 5771,
  "iptic": 5772,
  "iquen": 5773,
  "ircle": 5774,
  "irect": 5775,
  "irich": 5776,
  "iring": 5777,
  "irred": 5778,
  "irtua": 5779,
  "iscre": 5780,
  "iscri": 5781,
  "isely": 5782,
  "isfie": 5783,
  "isfyi": 5784,
  "ishes": 5785,
  "ishin": 5786,
  "isibl": 5787,
  "isimp": 5788,
  "isjoi": 5789,
  "isome": 5790,
  "isomo": 5791,
  "isors": 5792,
  "istan": 5793,
  "isted": 5794,
  "isten": 5795,
  "istic": 5796,
  "istin": 5797,
  "istri": 5798,
  "itary": 5799,
  "itely": 5800,
  "ither": 5801,
  "ithfu": 5802,
  "ithin": 5803,
  "ithme": 5804,
  "itica": 5805,
  "ities": 5806,
  "ition": 5807,
  "itive": 5808,
  "itsel": 5809,
  "itten": 5810,
  "ittin": 5811,
  "ivale": 5812,
  "ivari": 5813,
  "ivati": 5814,
  "ively": 5815,
  "ivers": 5816,
  "ivial": 5817,
  "ivide": 5818,
  "ividi": 5819,
  "ivisi": 5820,
  "iviso": 5821,
  "ivity": 5822,
  "izati": 5823,
  "izing": 5824,
  "jecti": 5825,
  "jectu": 5826,
  "joint": 5827,
  "jugac": 5828,
  "jugat": 5829,
  "kappa": 5830,
  "kerne": 5831,
  "known": 5832,
  "lambd": 5833,
  "langl": 5834,
  "large": 5835,
  "larit": 5836,
  "larly": 5837,
  "lasse": 5838,
  "lassi": 5839,
  "lated": 5840,
  "lates": 5841,
  "latin": 5842,
  "latio": 5843,
  "lator": 5844,
  "latti": 5845,
  "lbert": 5846,
  "lcula": 5847,
  "ldots": 5848,
  "ldsym": 5849,
  "leadi": 5850,
  "least": 5851,
  "lecti": 5852,
  "lectr": 5853,
  "lemen": 5854,
  "lemma": 5855,
  "lence": 5856,
  "lengt": 5857,
  "level": 5858,
  "lfloo": 5859,
  "lgebr": 5860,
  "licat": 5861,
  "licit": 5862,
  "lidat": 5863,
  "limin": 5864,
  "limit": 5865,
  "linea": 5866,
  "lipti": 5867,
  "lizat": 5868,
  "lized": 5869,
  "lizer": 5870,
  "llest": 5871,
  "lling": 5872,
  "llipt": 5873,
  "llowi": 5874,
  "llows": 5875,
  "lmost": 5876,
  "lobal": 5877,
  "local": 5878,
  "locus": 5879,
  "logar": 5880,
  "logic": 5881,
  "lomor": 5882,
  "losed": 5883,
  "losur": 5884,
  "lotom": 5885,
  "lower": 5886,
  "lowin": 5887,
  "lpote": 5888,
  "ltern": 5889,
  "ltipl": 5890,
  "ltrat": 5891,
  "luati": 5892,
  "lusio": 5893,
  "lutio": 5894,
  "lvabl": 5895,
  "lving": 5896,
  "lways": 5897,
  "lying": 5898,
  "lynom": 5899,
  "lysis": 5900,
  "lytic": 5901,
  "maliz": 5902,
  "malle": 5903,
  "manif": 5904,
  "manni": 5905,
  "mappi": 5906,
  "mapst": 5907,
  "match": 5908,
  "mathb": 5909,
  "mathc": 5910,
  "mathe": 5911,
  "mathf": 5912,
  "mathr": 5913,
  "matic": 5914,
  "matio": 5915,
  "matri": 5916,
  "maxim": 5917,
  "mbedd": 5918,
  "mbers": 5919,
  "mbina": 5920,
  "mbini": 5921,
  "means": 5922,
  "measu": 5923,
  "mensi": 5924,
  "menta": 5925,
  "ments": 5926,
  "merat": 5927,
  "meter": 5928,
  "metho": 5929,
  "metic": 5930,
  "metri": 5931,
  "metry": 5932,
  "mials": 5933,
  "mifie": 5934,
  "might": 5935,
  "milar": 5936,
  "minan": 5937,
  "minat": 5938,
  "mined": 5939,
  "minim": 5940,
  "minus": 5941,
  "misim": 5942,
  "mista": 5943,
  "mitiv": 5944,
  "mmetr": 5945,
  "mmuta": 5946,
  "model": 5947,
  "modul": 5948,
  "modyn": 5949,
  "molog": 5950,
  "momor": 5951,
  "monic": 5952,
  "monod": 5953,
  "mooth": 5954,
  "morph": 5955,
  "motop": 5956,
  "mpact": 5957,
  "mpati": 5958,
  "mplec": 5959,
  "mplem": 5960,
  "mplet": 5961,
  "mplex": 5962,
  "mplic": 5963,
  "mplie": 5964,
  "mplif": 5965,
  "mpone": 5966,
  "mpose": 5967,
  "mposi": 5968,
  "mposs": 5969,
  "mptio": 5970,
  "mptot": 5971,
  "mputa": 5972,
  "mpute": 5973,
  "mputi": 5974,
  "multi": 5975,
  "mutat": 5976,
  "nabla": 5977,
  "nalit": 5978,
  "nalys": 5979,
  "nalyt": 5980,
  "nalyz": 5981,
  "namic": 5982,
  "natio": 5983,
  "nator": 5984,
  "natur": 5985,
  "ncipa": 5986,
  "ncipl": 5987,
  "nclud": 5988,
  "nclus": 5989,
  "ncrea": 5990,
  "nctio": 5991,
  "nctor": 5992,
  "ndame": 5993,
  "ndard": 5994,
  "ndary": 5995,
  "ndeed": 5996,
  "ndenc": 5997,
  "ndent": 5998,
  "ndepe": 5999,
  "nders": 6000,
  "nding": 6001,
  "nditi": 6002,
  "ndles": 6003,
  "nduce": 6004,
  "nduct": 6005,
  "neces": 6006,
  "necte": 6007,
  "necti": 6008,
  "negat": 6009,
  "nenti": 6010,
  "nents": 6011,
  "nequa": 6012,
  "neral": 6013,
  "nerat": 6014,
  "nergy": 6015,
  "neric": 6016,
  "nfini": 6017,
  "nform": 6018,
  "ngent": 6019,
  "ngrue": 6020,
  "ngula": 6021,
  "nical": 6022,
  "nific": 6023,
  "nifol": 6024,
  "nifor": 6025,
  "nilpo": 6026,
  "nimal": 6027,
  "nimiz": 6028,
  "nimum": 6029,
  "nique": 6030,
  "nishe": 6031,
  "nishi": 6032,
  "nitar": 6033,
  "nitel": 6034,
  "nitio": 6035,
  "niver": 6036,
  "nject": 6037,
  "njuga": 6038,
  "nless": 6039,
  "nnect": 6040,
  "nnian": 6041,
  "nodro": 6042,
  "nomia": 6043,
  "nonic": 6044,
  "nontr": 6045,
  "nonze": 6046,
  "norma": 6047,
  "notat": 6048,
  "notes": 6049,
  "nothe": 6050,
  "notin": 6051,
  "nrami": 6052,
  "nsequ": 6053,
  "nsfor": 6054,
  "nside": 6055,
  "nsion": 6056,
  "nsist": 6057,
  "nsiti": 6058,
  "nsity": 6059,
  "nslat": 6060,
  "nstan": 6061,
  "nstei": 6062,
  "nstra": 6063,
  "nstru": 6064,
  "nsure": 6065,
  "nswer": 6066,
  "ntabl": 6067,
  "ntain": 6068,
  "ntary": 6069,
  "ntati": 6070,
  "ntege": 6071,
  "ntegr": 6072,
  "ntere": 6073,
  "nterp": 6074,
  "nters": 6075,
  "nterv": 6076,
  "ntial": 6077,
  "ntify": 6078,
  "nting": 6079,
  "ntinu": 6080,
  "ntiti": 6081,
  "ntity": 6082,
  "ntrad": 6083,
  "ntral": 6084,
  "ntrib": 6085,
  "ntriv": 6086,
  "ntrol": 6087,
  "ntrop": 6088,
  "numbe": 6089,
  "numer": 6090,
  "nuous": 6091,
  "nvalu": 6092,
  "nvari": 6093,
  "nverg": 6094,
  "nvers": 6095,
  "nvert": 6096,
  "nvolu": 6097,
  "nvolv": 6098,
  "nzero": 6099,
  "obabi": 6100,
  "obeni": 6101,
  "obian": 6102,
  "objec": 6103,
  "oblem": 6104,
  "obser": 6105,
  "obtai": 6106,
  "ocali": 6107,
  "occur": 6108,
  "ociat": 6109,
  "odesi": 6110,
  "odime": 6111,
  "odrom": 6112,
  "oduct": 6113,
  "odula": 6114,
  "odule": 6115,
  "oduli": 6116,
  "odulo": 6117,
  "odyna": 6118,
  "oeffi": 6119,
  "ogari": 6120,
  "ogica": 6121,
  "ogona": 6122,
  "ohomo": 6123,
  "oints": 6124,
  "oject": 6125,
  "olate": 6126,
  "oldsy": 6127,
  "ollow": 6128,
  "ologi": 6129,
  "ology": 6130,
  "olomo": 6131,
  "olume": 6132,
  "olute": 6133,
  "oluti": 6134,
  "olvab": 6135,
  "olves": 6136,
  "olvin": 6137,
  "olyno": 6138,
  "omati": 6139,
  "ombin": 6140,
  "omega": 6141,
  "ometr": 6142,
  "omial": 6143,
  "omina": 6144,
  "ommut": 6145,
  "omolo": 6146,
  "omomo": 6147,
  "omorp": 6148,
  "omoto": 6149,
  "ompac": 6150,
  "ompar": 6151,
  "ompat": 6152,
  "omple": 6153,
  "ompon": 6154,
  "ompos": 6155,
  "omput": 6156,
  "onald": 6157,
  "onali": 6158,
  "onclu": 6159,
  "onden": 6160,
  "ondin": 6161,
  "ondit": 6162,
  "onduc": 6163,
  "onent": 6164,
  "ongru": 6165,
  "onica": 6166,
  "onjec": 6167,
  "onjug": 6168,
  "onnec": 6169,
  "onodr": 6170,
  "onorm": 6171,
  "onseq": 6172,
  "onsid": 6173,
  "onsis": 6174,
  "onsta": 6175,
  "onstr": 6176,
  "ontai": 6177,
  "ontin": 6178,
  "ontra": 6179,
  "ontri": 6180,
  "ontro": 6181,
  "onver": 6182,
  "onvex": 6183,
  "onzer": 6184,
  "oordi": 6185,
  "opera": 6186,
  "opert": 6187,
  "oplus": 6188,
  "opolo": 6189,
  "optim": 6190,
  "orbit": 6191,
  "orces": 6192,
  "order": 6193,
  "ordin": 6194,
  "oreov": 6195,
  "orien": 6196,
  "ormal": 6197,
  "ormat": 6198,
  "ormul": 6199,
  "ornam": 6200,
  "orphi": 6201,
  "orrec": 6202,
  "orres": 6203,
  "orsio": 6204,
  "ortho": 6205,
  "ositi": 6206,
  "ossib": 6207,
  "osure": 6208,
  "otall": 6209,
  "otati": 6210,
  "otent": 6211,
  "other": 6212,
  "othes": 6213,
  "otien": 6214,
  "otime": 6215,
  "otomi": 6216,
  "otopy": 6217,
  "ouble": 6218,
  "ounda": 6219,
  "ounde": 6220,
  "ounds": 6221,
  "ounte": 6222,
  "ounti": 6223,
  "ounts": 6224,
  "ourie": 6225,
  "outco": 6226,
  "overl": 6227,
  "ovide": 6228,
  "owers": 6229,
  "oweve": 6230,
  "owing": 6231,
  "oxima": 6232,
  "paces": 6233,
  "pairi": 6234,
  "pairs": 6235,
  "pansi": 6236,
  "parab": 6237,
  "param": 6238,
  "parti": 6239,
  "parts": 6240,
  "patib": 6241,
  "pecia": 6242,
  "pecif": 6243,
  "pectr": 6244,
  "pende": 6245,
  "pendi": 6246,
  "pends": 6247,
  "perat": 6248,
  "perbo": 6249,
  "perel": 6250,
  "perfe": 6251,
  "perha": 6252,
  "perio": 6253,
  "permu": 6254,
  "perti": 6255,
  "perty": 6256,
  "perve": 6257,
  "phere": 6258,
  "pheri": 6259,
  "phism": 6260,
  "physi": 6261,
  "pical": 6262,
  "place": 6263,
  "plain": 6264,
  "plane": 6265,
  "plect": 6266,
  "pleme": 6267,
  "plete": 6268,
  "plica": 6269,
  "plici": 6270,
  "plies": 6271,
  "plifi": 6272,
  "plify": 6273,
  "plyin": 6274,
  "pmatr": 6275,
  "point": 6276,
  "polog": 6277,
  "polyn": 6278,
  "ponde": 6279,
  "pondi": 6280,
  "ponds": 6281,
  "ponen": 6282,
  "poses": 6283,
  "posit": 6284,
  "possi": 6285,
  "poten": 6286,
  "pothe": 6287,
  "power": 6288,
  "ppear": 6289,
  "pping": 6290,
  "pport": 6291,
  "ppose": 6292,
  "pproa": 6293,
  "pprox": 6294,
  "preci": 6295,
  "prese": 6296,
  "press": 6297,
  "preta": 6298,
  "prime": 6299,
  "primi": 6300,
  "princ": 6301,
  "pring": 6302,
  "proac": 6303,
  "proba": 6304,
  "probl": 6305,
  "proce": 6306,
  "produ": 6307,
  "proje": 6308,
  "proof": 6309,
  "prope": 6310,
  "prove": 6311,
  "provi": 6312,
  "proxi": 6313,
  "psilo": 6314,
  "ptima": 6315,
  "ption": 6316,
  "ptoti": 6317,
  "putat": 6318,
  "puted": 6319,
  "putin": 6320,
  "qquad": 6321,
  "quadr": 6322,
  "quali": 6323,
  "quals": 6324,
  "quant": 6325,
  "quare": 6326,
  "quasi": 6327,
  "quati": 6328,
  "quenc": 6329,
  "quene": 6330,
  "quire": 6331,
  "quiva": 6332,
  "quoti": 6333,
  "rable": 6334,
  "rabol": 6335,
  "racte": 6336,
  "racti": 6337,
  "radic": 6338,
  "radiu": 6339,
  "raint": 6340,
  "raliz": 6341,
  "ramet": 6342,
  "ramif": 6343,
  "rando": 6344,
  "range": 6345,
  "rangl": 6346,
  "ransf": 6347,
  "ransi": 6348,
  "ransl": 6349,
  "raphs": 6350,
  "rated": 6351,
  "rates": 6352,
  "ratic": 6353,
  "ratin": 6354,
  "ratio": 6355,
  "rator": 6356,
  "rbits": 6357,
  "rboli": 6358,
  "rdere": 6359,
  "rdina": 6360,
  "reasi": 6361,
  "recis": 6362,
  "recon": 6363,
  "recti": 6364,
  "rectl": 6365,
  "recur": 6366,
  "reduc": 6367,
  "refin": 6368,
  "refor": 6369,
  "reful": 6370,
  "regul": 6371,
  "relat": 6372,
  "relli": 6373,
  "remai": 6374,
  "rence": 6375,
  "renti": 6376,
  "reove": 6377,
  "repre": 6378,
  "repsi": 6379,
  "requi": 6380,
  "resen": 6381,
  "reser": 6382,
  "resid": 6383,
  "resol": 6384,
  "respe": 6385,
  "respo": 6386,
  "ressi": 6387,
  "restr": 6388,
  "resul": 6389,
  "retat": 6390,
  "rface": 6391,
  "rfect": 6392,
  "rfloo": 6393,
  "rgenc": 6394,
  "rgest": 6395,
  "rgodi": 6396,
  "rgume": 6397,
  "rhaps": 6398,
  "rianc": 6399,
  "riang": 6400,
  "riant": 6401,
  "riati": 6402,
  "ribut": 6403,
  "rical": 6404,
  "rices": 6405,
  "richl": 6406,
  "ricti": 6407,
  "rictl": 6408,
  "rient": 6409,
  "rieti": 6410,
  "riety": 6411,
  "rific": 6412,
  "right": 6413,
  "rimes": 6414,
  "rimin": 6415,
  "rimit": 6416,
  "rinci": 6417,
  "ringe": 6418,
  "riodi": 6419,
  "riple": 6420,
  "risti": 6421,
  "rithm": 6422,
  "ritic": 6423,
  "rivat": 6424,
  "rived": 6425,
  "rivia": 6426,
  "rizat": 6427,
  "rline": 6428,
  "rmali": 6429,
  "rmati": 6430,
  "rmina": 6431,
  "rmine": 6432,
  "rmody": 6433,
  "rmoni": 6434,
  "rmore": 6435,
  "rmula": 6436,
  "rmuta": 6437,
  "rname": 6438,
  "rnati": 6439,
  "roach": 6440,
  "robab": 6441,
  "roben": 6442,
  "roble": 6443,
  "roduc": 6444,
  "rojec": 6445,
  "roots": 6446,
  "roper": 6447,
  "rothe": 6448,
  "rough": 6449,
  "round": 6450,
  "roups": 6451,
  "roved": 6452,
  "rovid": 6453,
  "rowth": 6454,
  "roxim": 6455,
  "rphic": 6456,
  "rphis": 6457,
  "rpret": 6458,
  "rrect": 6459,
  "rredu": 6460,
  "rrenc": 6461,
  "rrent": 6462,
  "rresp": 6463,
  "rsect": 6464,
  "rsion": 6465,
  "rsson": 6466,
  "rstan": 6467,
  "rtain": 6468,
  "rther": 6469,
  "rthog": 6470,
  "rtial": 6471,
  "rtice": 6472,
  "rticu": 6473,
  "rties": 6474,
  "rtiti": 6475,
  "rtual": 6476,
  "ructi": 6477,
  "ructu": 6478,
  "rvatu": 6479,
  "rvers": 6480,
  "rving": 6481,
  "rwise": 6482,
  "satis": 6483,
  "scala": 6484,
  "schet": 6485,
  "scret": 6486,
  "scrim": 6487,
  "secon": 6488,
  "secti": 6489,
  "semis": 6490,
  "sense": 6491,
  "senta": 6492,
  "senti": 6493,
  "separ": 6494,
  "seque": 6495,
  "serie": 6496,
  "serva": 6497,
  "serve": 6498,
  "servi": 6499,
  "seteq": 6500,
  "setmi": 6501,
  "sfies": 6502,
  "sform": 6503,
  "sfyin": 6504,
  "shall": 6505,
  "sharp": 6506,
  "sheaf": 6507,
  "sheav": 6508,
  "shift": 6509,
  "shing": 6510,
  "shoul": 6511,
  "shown": 6512,
  "shows": 6513,
  "sibil": 6514,
  "sible": 6515,
  "sical": 6516,
  "sider": 6517,
  "sidue": 6518,
  "sific": 6519,
  "sigma": 6520,
  "signa": 6521,
  "signi": 6522,
  "silon": 6523,
  "simpl": 6524,
  "since": 6525,
  "singl": 6526,
  "singu": 6527,
  "siona": 6528,
  "sions": 6529,
  "siste": 6530,
  "sists": 6531,
  "sitio": 6532,
  "sitiv": 6533,
  "sjoin": 6534,
  "slati": 6535,
  "small": 6536,
  "smoot": 6537,
  "socia": 6538,
  "solut": 6539,
  "solva": 6540,
  "solve": 6541,
  "somet": 6542,
  "somor": 6543,
  "space": 6544,
  "speci": 6545,
  "spect": 6546,
  "spher": 6547,
  "split": 6548,
  "spond": 6549,
  "squar": 6550,
  "ssent": 6551,
  "ssian": 6552,
  "ssibl": 6553,
  "ssica": 6554,
  "ssifi": 6555,
  "ssing": 6556,
  "ssion": 6557,
  "ssoci": 6558,
  "ssume": 6559,
  "ssump": 6560,
  "stabi": 6561,
  "stabl": 6562,
  "stack": 6563,
  "stanc": 6564,
  "stand": 6565,
  "stant": 6566,
  "state": 6567,
  "stati": 6568,
  "stein": 6569,
  "stenc": 6570,
  "stent": 6571,
  "steps": 6572,
  "still": 6573,
  "stima": 6574,
  "stinc": 6575,
  "sting": 6576,
  "stitu": 6577,
  "strai": 6578,
  "strat": 6579,
  "strib": 6580,
  "stric": 6581,
  "stron": 6582,
  "struc": 6583,
  "subgr": 6584,
  "subse": 6585,
  "subsp": 6586,
  "subst": 6587,
  "suffi": 6588,
  "sugge": 6589,
  "sults": 6590,
  "sumpt": 6591,
  "super": 6592,
  "suppo": 6593,
  "surab": 6594,
  "sures": 6595,
  "surfa": 6596,
  "symbo": 6597,
  "symme": 6598,
  "sympl": 6599,
  "sympt": 6600,
  "syste": 6601,
  "sztig": 6602,
  "tabil": 6603,
  "table": 6604,
  "tabli": 6605,
  "taine": 6606,
  "taini": 6607,
  "tains": 6608,
  "tally": 6609,
  "tance": 6610,
  "tanda": 6611,
  "tange": 6612,
  "tants": 6613,
  "tarro": 6614,
  "tatem": 6615,
  "tates": 6616,
  "tatio": 6617,
  "tativ": 6618,
  "tchin": 6619,
  "tcome": 6620,
  "teger": 6621,
  "tegor": 6622,
  "tegra": 6623,
  "temen": 6624,
  "tence": 6625,
  "tends": 6626,
  "tensi": 6627,
  "tenso": 6628,
  "terio": 6629,
  "teris": 6630,
  "teriz": 6631,
  "termi": 6632,
  "terms": 6633,
  "terna": 6634,
  "terpr": 6635,
  "terse": 6636,
  "terss": 6637,
  "terva": 6638,
  "textb": 6639,
  "tfrac": 6640,
  "thcal": 6641,
  "their": 6642,
  "thema": 6643,
  "theor": 6644,
  "there": 6645,
  "therm": 6646,
  "thers": 6647,
  "these": 6648,
  "thesi": 6649,
  "theta": 6650,
  "thfra": 6651,
  "thful": 6652,
  "thing": 6653,
  "think": 6654,
  "thmet": 6655,
  "thogo": 6656,
  "those": 6657,
  "thoug": 6658,
  "three": 6659,
  "throu": 6660,
  "tiall": 6661,
  "tible": 6662,
  "tical": 6663,
  "tices": 6664,
  "ticul": 6665,
  "tient": 6666,
  "tific": 6667,
  "tilde": 6668,
  "timal": 6669,
  "timat": 6670,
  "times": 6671,
  "tinct": 6672,
  "tinuo": 6673,
  "tiona": 6674,
  "tions": 6675,
  "tiple": 6676,
  "tipli": 6677,
  "tisfi": 6678,
  "tisfy": 6679,
  "titie": 6680,
  "titio": 6681,
  "tivel": 6682,
  "tivit": 6683,
  "tminu": 6684,
  "tness": 6685,
  "token": 6686,
  "tomic": 6687,
  "tomor": 6688,
  "topol": 6689,
  "torna": 6690,
  "torsi": 6691,
  "torus": 6692,
  "total": 6693,
  "totic": 6694,
  "trace": 6695,
  "tract": 6696,
  "tradi": 6697,
  "train": 6698,
  "trans": 6699,
  "trati": 6700,
  "trian": 6701,
  "tribu": 6702,
  "trice": 6703,
  "trics": 6704,
  "trict": 6705,
  "tries": 6706,
  "tripl": 6707,
  "trivi": 6708,
  "trong": 6709,
  "tropy": 6710,
  "truct": 6711,
  "tself": 6712,
  "ttice": 6713,
  "tting": 6714,
  "tuall": 6715,
  "tural": 6716,
  "tures": 6717,
  "tween": 6718,
  "twist": 6719,
  "typic": 6720,
  "uadra": 6721,
  "ualit": 6722,
  "ually": 6723,
  "uanti": 6724,
  "uantu": 6725,
  "uares": 6726,
  "uatio": 6727,
  "ubgro": 6728,
  "ubset": 6729,
  "ubspa": 6730,
  "ucibl": 6731,
  "uctio": 6732,
  "uctur": 6733,
  "uence": 6734,
  "uenes": 6735,
  "uffic": 6736,
  "ugacy": 6737,
  "ugate": 6738,
  "ugges": 6739,
  "uired": 6740,
  "uival": 6741,
  "uivar": 6742,
  "ulari": 6743,
  "ulate": 6744,
  "ulati": 6745,
  "ulato": 6746,
  "ullet": 6747,
  "ultip": 6748,
  "umber": 6749,
  "ument": 6750,
  "umera": 6751,
  "umpti": 6752,
  "uncti": 6753,
  "uncto": 6754,
  "undam": 6755,
  "undar": 6756,
  "unded": 6757,
  "under": 6758,
  "undle": 6759,
  "unifo": 6760,
  "union": 6761,
  "uniqu": 6762,
  "unita": 6763,
  "units": 6764,
  "unity": 6765,
  "unive": 6766,
  "unles": 6767,
  "unram": 6768,
  "untin": 6769,
  "uotie": 6770,
  "upper": 6771,
  "uppor": 6772,
  "uppos": 6773,
  "urabl": 6774,
  "urfac": 6775,
  "urier": 6776,
  "urren": 6777,
  "urthe": 6778,
  "urvat": 6779,
  "urves": 6780,
  "using": 6781,
  "usion": 6782,
  "uszti": 6783,
  "utati": 6784,
  "utcom": 6785,
  "uting": 6786,
  "ution": 6787,
  "utomo": 6788,
  "vable": 6789,
  "valen": 6790,
  "valid": 6791,
  "valua": 6792,
  "value": 6793,
  "vanis": 6794,
  "varep": 6795,
  "varia": 6796,
  "varie": 6797,
  "varph": 6798,
  "vatio": 6799,
  "vativ": 6800,
  "vatur": 6801,
  "vecto": 6802,
  "verag": 6803,
  "verge": 6804,
  "verif": 6805,
  "verli": 6806,
  "versa": 6807,
  "verse": 6808,
  "verte": 6809,
  "verti": 6810,
  "vides": 6811,
  "vidin": 6812,
  "virtu": 6813,
  "visib": 6814,
  "visor": 6815,
  "volum": 6816,
  "volut": 6817,
  "volve": 6818,
  "wasaw": 6819,
  "wedge": 6820,
  "weigh": 6821,
  "wever": 6822,
  "where": 6823,
  "which": 6824,
  "while": 6825,
  "whose": 6826,
  "wideh": 6827,
  "widet": 6828,
  "wiste": 6829,
  "withi": 6830,
  "would": 6831,
  "write": 6832,
  "xactl": 6833,
  "xamin": 6834,
  "xampl": 6835,
  "xcept": 6836,
  "ximal": 6837,
  "ximat": 6838,
  "ximum": 6839,
  "xiste": 6840,
  "xists": 6841,
  "xpans": 6842,
  "xpect": 6843,
  "xplai": 6844,
  "xplic": 6845,
  "xpone": 6846,
  "xpres": 6847,
  "xtend": 6848,
  "xtens": 6849,
  "yclic": 6850,
  "yclot": 6851,
  "yield": 6852,
  "ymbol": 6853,
  "ymmet": 6854,
  "ymple": 6855,
  "ympto": 6856,
  "ynami": 6857,
  "ynomi": 6858,
  "yperb": 6859,
  "ypere": 6860,
  "ypica": 6861,
  "ypoth": 6862,
  "ysica": 6863,
  "ystem": 6864,
  "zatio": 6865,
  "Kähle": 6866,
  "ähler": 6867,
  "üller": 6868,
  "¡": 6869,
  "¢": 6870,
  "£": 6871,
  "¤": 6872,
  "¥": 6873,
  "¦": 6874,
  "§": 6875,
  "¨": 6876,
  "©": 6877,
  "«": 6878,
  "¬": 6879,
  "®": 6880,
  "¯": 6881,
  "°": 6882,
  "±": 6883,
  "²": 6884,
  "³": 6885,
  "´": 6886,
  "¶": 6887,
  "·": 6888,
  "¸": 6889,
  "¹": 6890,
  "»": 6891,
  "¼": 6892,
  "½": 6893,
  "¾": 6894,
  "¿": 6895,
  "×": 6896,
  "÷": 6897,
  "‑": 6898,
  "–": 6899,
  "—": 6900,
  "’": 6901,
  "  ": 6902,
  " \"": 6903,
  " $": 6904,
  " &": 6905,
  " '": 6906,
  " (": 6907,
  " *": 6908,
  " +": 6909,
  " ,": 6910,
  " -": 6911,
  " .": 6912,
  " /": 6913,
  " 0": 6914,
  " 1": 6915,
  " 2": 6916,
  " 3": 6917,
  " 4": 6918,
  " 5": 6919,
  " 6": 6920,
  " 7": 6921,
  " 8": 6922,
  " 9": 6923,
  " :": 6924,
  " <": 6925,
  " =": 6926,
  " >": 6927,
  " A": 6928,
  " B": 6929,
  " C": 6930,
  " D": 6931,
  " E": 6932,
  " F": 6933,
  " G": 6934,
  " H": 6935,
  " I": 6936,
  " J": 6937,
  " K": 6938,
  " L": 6939,
  " M": 6940,
  " N": 6941,
  " O": 6942,
  " P": 6943,
  " Q": 6944,
  " R": 6945,
  " S": 6946,
  " T": 6947,
  " U": 6948,
  " V": 6949,
  " W": 6950,
  " X": 6951,
  " Y": 6952,
  " Z": 6953,
  " [": 6954,
  " \\": 6955,
  " a": 6956,
  " b": 6957,
  " c": 6958,
  " d": 6959,
  " e": 6960,
  " f": 6961,
  " g": 6962,
  " h": 6963,
  " i": 6964,
  " j": 6965,
  " k": 6966,
  " l": 6967,
  " m": 6968,
  " n": 6969,
  " o": 6970,
  " p": 6971,
  " q": 6972,
  " r": 6973,
  " s": 6974,
  " t": 6975,
  " u": 6976,
  " v": 6977,
  " w": 6978,
  " x": 6979,
  " y": 6980,
  " z": 6981,
  " {": 6982,
  " |": 6983,
  " }": 6984,
  "! ": 6985,
  "!\\": 6986,
  "!}": 6987,
  "\" ": 6988,
  "# ": 6989,
  "##": 6990,
  "#\\": 6991,
  "$ ": 6992,
  "$$": 6993,
  "$(": 6994,
  "$)": 6995,
  "$*": 6996,
  "$,": 6997,
  "$-": 6998,
  "$.": 6999,
  "$0": 7000,
  "$1": 7001,
  "$2": 7002,
  "$3": 7003,
  "$:": 7004,
  "$?": 7005,
  "$A": 7006,
  "$B": 7007,
  "$C": 7008,
  "$D": 7009,
  "$E": 7010,
  "$F": 7011,
  "$G": 7012,
  "$H": 7013,
  "$K": 7014,
  "$L": 7015,
  "$M": 7016,
  "$N": 7017,
  "$P": 7018,
  "$Q": 7019,
  "$R": 7020,
  "$S": 7021,
  "$T": 7022,
  "$V": 7023,
  "$W": 7024,
  "$X": 7025,
  "$Z": 7026,
  "$[": 7027,
  "$\\": 7028,
  "$a": 7029,
  "$b": 7030,
  "$c": 7031,
  "$d": 7032,
  "$e": 7033,
  "$f": 7034,
  "$g": 7035,
  "$h": 7036,
  "$i": 7037,
  "$k": 7038,
  "$m": 7039,
  "$n": 7040,
  "$p": 7041,
  "$q": 7042,
  "$r": 7043,
  "$s": 7044,
  "$t": 7045,
  "$u": 7046,
  "$v": 7047,
  "$w": 7048,
  "$x": 7049,
  "$|": 7050,
  "& ": 7051,
  "' ": 7052,
  "''": 7053,
  "'(": 7054,
  "')": 7055,
  "',": 7056,
  "'d": 7057,
  "'e": 7058,
  "'l": 7059,
  "'s": 7060,
  "'t": 7061,
  "'}": 7062,
  "( ": 7063,
  "((": 7064,
  "(-": 7065,
  "(0": 7066,
  "(1": 7067,
  "(2": 7068,
  "(3": 7069,
  "(4": 7070,
  "(5": 7071,
  "(6": 7072,
  "(A": 7073,
  "(B": 7074,
  "(C": 7075,
  "(D": 7076,
  "(E": 7077,
  "(F": 7078,
  "(G": 7079,
  "(H": 7080,
  "(I": 7081,
  "(J": 7082,
  "(K": 7083,
  "(L": 7084,
  "(M": 7085,
  "(N": 7086,
  "(P": 7087,
  "(R": 7088,
  "(S": 7089,
  "(T": 7090,
  "(U": 7091,
  "(V": 7092,
  "(W": 7093,
  "(X": 7094,
  "(Y": 7095,
  "([": 7096,
  "(\\": 7097,
  "(a": 7098,
  "(b": 7099,
  "(c": 7100,
  "(d": 7101,
  "(e": 7102,
  "(f": 7103,
  "(g": 7104,
  "(h": 7105,
  "(i": 7106,
  "(k": 7107,
  "(m": 7108,
  "(n": 7109,
  "(o": 7110,
  "(p": 7111,
  "(q": 7112,
  "(r": 7113,
  "(s": 7114,
  "(t": 7115,
  "(u": 7116,
  "(v": 7117,
  "(w": 7118,
  "(x": 7119,
  "(y": 7120,
  "(z": 7121,
  "(|": 7122,
  ") ": 7123,
  ")!": 7124,
  ")$": 7125,
  ")(": 7126,
  "))": 7127,
  ")*": 7128,
  ")+": 7129,
  "),": 7130,
  ")-": 7131,
  ").": 7132,
  ")/": 7133,
  "):": 7134,
  ")=": 7135,
  ")[": 7136,
  ")\\": 7137,
  ")]": 7138,
  ")^": 7139,
  ")_": 7140,
  ")|": 7141,
  ")}": 7142,
  "* ": 7143,
  "*$": 7144,
  "*(": 7145,
  "*)": 7146,
  "**": 7147,
  "*,": 7148,
  "*:": 7149,
  "*C": 7150,
  "*P": 7151,
  "*S": 7152,
  "*T": 7153,
  "*\\": 7154,
  "*_": 7155,
  "*}": 7156,
  "+ ": 7157,
  "+(": 7158,
  "+1": 7159,
  "+2": 7160,
  "+3": 7161,
  "+\\": 7162,
  "+b": 7163,
  "+c": 7164,
  "+n": 7165,
  "+p": 7166,
  "+}": 7167,
  ", ": 7168,
  ",-": 7169,
  ",0": 7170,
  ",1": 7171,
  ",2": 7172,
  ",3": 7173,
  ",4": 7174,
  ",5": 7175,
  ",7": 7176,
  ",\\": 7177,
  ",b": 7178,
  ",c": 7179,
  ",d": 7180,
  ",j": 7181,
  ",k": 7182,
  ",n": 7183,
  ",p": 7184,
  ",q": 7185,
  ",s": 7186,
  ",t": 7187,
  ",w": 7188,
  ",x": 7189,
  ",y": 7190,
  "- ": 7191,
  "-$": 7192,
  "-(": 7193,
  "--": 7194,
  "-1": 7195,
  "-2": 7196,
  "-3": 7197,
  "-4": 7198,
  "-6": 7199,
  "-A": 7200,
  "-B": 7201,
  "-C": 7202,
  "-F": 7203,
  "-K": 7204,
  "-L": 7205,
  "-M": 7206,
  "-P": 7207,
  "-R": 7208,
  "-S": 7209,
  "-T": 7210,
  "-W": 7211,
  "-Y": 7212,
  "-\\": 7213,
  "-a": 7214,
  "-b": 7215,
  "-c": 7216,
  "-d": 7217,
  "-e": 7218,
  "-f": 7219,
  "-g": 7220,
  "-h": 7221,
  "-i": 7222,
  "-k": 7223,
  "-l": 7224,
  "-m": 7225,
  "-n": 7226,
  "-o": 7227,
  "-p": 7228,
  "-q": 7229,
  "-r": 7230,
  "-s": 7231,
  "-t": 7232,
  "-u": 7233,
  "-v": 7234,
  "-x": 7235,
  "-z": 7236,
  ". ": 7237,
  ".$": 7238,
  ".*": 7239,
  ".,": 7240,
  "..": 7241,
  ".0": 7242,
  ".2": 7243,
  ".5": 7244,
  ".e": 7245,
  ".}": 7246,
  "/ ": 7247,
  "/(": 7248,
  "/1": 7249,
  "/2": 7250,
  "/3": 7251,
  "/4": 7252,
  "/B": 7253,
  "/G": 7254,
  "/K": 7255,
  "/N": 7256,
  "/\\": 7257,
  "/d": 7258,
  "/k": 7259,
  "/n": 7260,
  "/p": 7261,
  "/q": 7262,
  "0 ": 7263,
  "0$": 7264,
  "0(": 7265,
  "0)": 7266,
  "0,": 7267,
  "0.": 7268,
  "00": 7269,
  "01": 7270,
  "02": 7271,
  "03": 7272,
  "04": 7273,
  "05": 7274,
  "08": 7275,
  "09": 7276,
  "0:": 7277,
  "0\\": 7278,
  "0^": 7279,
  "0}": 7280,
  "1 ": 7281,
  "1$": 7282,
  "1(": 7283,
  "1)": 7284,
  "1+": 7285,
  "1,": 7286,
  "1-": 7287,
  "1.": 7288,
  "1/": 7289,
  "10": 7290,
  "11": 7291,
  "12": 7292,
  "13": 7293,
  "14": 7294,
  "15": 7295,
  "16": 7296,
  "17": 7297,
  "18": 7298,
  "19": 7299,
  "1:": 7300,
  "1=": 7301,
  "1\\": 7302,
  "1]": 7303,
  "1^": 7304,
  "1_": 7305,
  "1}": 7306,
  "2 ": 7307,
  "2$": 7308,
  "2'": 7309,
  "2(": 7310,
  "2)": 7311,
  "2+": 7312,
  "2,": 7313,
  "2-": 7314,
  "2.": 7315,
  "2/": 7316,
  "20": 7317,
  "21": 7318,
  "22": 7319,
  "23": 7320,
  "24": 7321,
  "25": 7322,
  "26": 7323,
  "27": 7324,
  "28": 7325,
  "29": 7326,
  "2:": 7327,
  "2=": 7328,
  "2\\": 7329,
  "2]": 7330,
  "2^": 7331,
  "2a": 7332,
  "2d": 7333,
  "2g": 7334,
  "2k": 7335,
  "2m": 7336,
  "2n": 7337,
  "2p": 7338,
  "2s": 7339,
  "2x": 7340,
  "2|": 7341,
  "2}": 7342,
  "3 ": 7343,
  "3$": 7344,
  "3(": 7345,
  "3)": 7346,
  "3,": 7347,
  "3-": 7348,
  "3.": 7349,
  "3/": 7350,
  "30": 7351,
  "31": 7352,
  "32": 7353,
  "33": 7354,
  "34": 7355,
  "35": 7356,
  "36": 7357,
  "37": 7358,
  "38": 7359,
  "39": 7360,
  "3:": 7361,
  "3\\": 7362,
  "3^": 7363,
  "3g": 7364,
  "3}": 7365,
  "4 ": 7366,
  "4$": 7367,
  "4(": 7368,
  "4)": 7369,
  "4,": 7370,
  "4-": 7371,
  "4.": 7372,
  "40": 7373,
  "41": 7374,
  "42": 7375,
  "43": 7376,
  "44": 7377,
  "45": 7378,
  "47": 7379,
  "48": 7380,
  "49": 7381,
  "4:": 7382,
  "4\\": 7383,
  "4^": 7384,
  "4}": 7385,
  "5 ": 7386,
  "5$": 7387,
  "5)": 7388,
  "5,": 7389,
  "5.": 7390,
  "50": 7391,
  "51": 7392,
  "52": 7393,
  "53": 7394,
  "54": 7395,
  "55": 7396,
  "56": 7397,
  "57": 7398,
  "59": 7399,
  "5:": 7400,
  "5\\": 7401,
  "5^": 7402,
  "5}": 7403,
  "6 ": 7404,
  "6$": 7405,
  "6)": 7406,
  "6,": 7407,
  "6.": 7408,
  "60": 7409,
  "61": 7410,
  "62": 7411,
  "63": 7412,
  "64": 7413,
  "66": 7414,
  "67": 7415,
  "68": 7416,
  "69": 7417,
  "6:": 7418,
  "6\\": 7419,
  "6g": 7420,
  "6}": 7421,
  "7 ": 7422,
  "7$": 7423,
  "7)": 7424,
  "7,": 7425,
  "7.": 7426,
  "70": 7427,
  "71": 7428,
  "72": 7429,
  "73": 7430,
  "74": 7431,
  "75": 7432,
  "76": 7433,
  "7:": 7434,
  "7^": 7435,
  "7}": 7436,
  "8 ": 7437,
  "8$": 7438,
  "8)": 7439,
  "8,": 7440,
  "8.": 7441,
  "80": 7442,
  "81": 7443,
  "83": 7444,
  "84": 7445,
  "87": 7446,
  "88": 7447,
  "89": 7448,
  "8:": 7449,
  "8\\": 7450,
  "8}": 7451,
  "9 ": 7452,
  "9)": 7453,
  "9,": 7454,
  "9.": 7455,
  "90": 7456,
  "91": 7457,
  "92": 7458,
  "96": 7459,
  "97": 7460,
  "98": 7461,
  "99": 7462,
  "9:": 7463,
  "9}": 7464,
  ": ": 7465,
  ":*": 7466,
  ":=": 7467,
  ":\\": 7468,
  ":}": 7469,
  "; ": 7470,
  ";\\": 7471,
  ";q": 7472,
  "< ": 7473,
  "= ": 7474,
  "=-": 7475,
  "=0": 7476,
  "=1": 7477,
  "=2": 7478,
  "=3": 7479,
  "=4": 7480,
  "=\\": 7481,
  "> ": 7482,
  ">0": 7483,
  "? ": 7484,
  "A ": 7485,
  "A$": 7486,
  "A(": 7487,
  "A)": 7488,
  "A,": 7489,
  "A:": 7490,
  "A\\": 7491,
  "A^": 7492,
  "A_": 7493,
  "A|": 7494,
  "A}": 7495,
  "B ": 7496,
  "B$": 7497,
  "B(": 7498,
  "B)": 7499,
  "B_": 7500,
  "B}": 7501,
  "C ": 7502,
  "C$": 7503,
  "C(": 7504,
  "C)": 7505,
  "C,": 7506,
  "C^": 7507,
  "C_": 7508,
  "C}": 7509,
  "D ": 7510,
  "D(": 7511,
  "D)": 7512,
  "D:": 7513,
  "D^": 7514,
  "D_": 7515,
  "D}": 7516,
  "E ": 7517,
  "E$": 7518,
  "E(": 7519,
  "E)": 7520,
  "E,": 7521,
  "E/": 7522,
  "E:": 7523,
  "E_": 7524,
  "E}": 7525,
  "F ": 7526,
  "F$": 7527,
  "F(": 7528,
  "F)": 7529,
  "F_": 7530,
  "F}": 7531,
  "G ": 7532,
  "G$": 7533,
  "G(": 7534,
  "G)": 7535,
  "G,": 7536,
  "G/": 7537,
  "G\\": 7538,
  "G]": 7539,
  "G^": 7540,
  "G_": 7541,
  "G|": 7542,
  "G}": 7543,
  "H ": 7544,
  "H$": 7545,
  "H(": 7546,
  "H)": 7547,
  "H^": 7548,
  "H_": 7549,
  "H}": 7550,
  "I ": 7551,
  "I'": 7552,
  "I)": 7553,
  "I:": 7554,
  "I_": 7555,
  "I}": 7556,
  "J_": 7557,
  "J}": 7558,
  "K ": 7559,
  "K$": 7560,
  "K(": 7561,
  "K)": 7562,
  "K,": 7563,
  "K/": 7564,
  "K3": 7565,
  "K:": 7566,
  "K\\": 7567,
  "K^": 7568,
  "K_": 7569,
  "K|": 7570,
  "K}": 7571,
  "L ": 7572,
  "L$": 7573,
  "L(": 7574,
  "L)": 7575,
  "L-": 7576,
  "L^": 7577,
  "L_": 7578,
  "L}": 7579,
  "M ": 7580,
  "M$": 7581,
  "M(": 7582,
  "M)": 7583,
  "M,": 7584,
  "M;": 7585,
  "M\\": 7586,
  "M^": 7587,
  "M_": 7588,
  "M}": 7589,
  "N ": 7590,
  "N$": 7591,
  "N(": 7592,
  "N)": 7593,
  "N\\": 7594,
  "N^": 7595,
  "N_": 7596,
  "N}": 7597,
  "O ": 7598,
  "O(": 7599,
  "O,": 7600,
  "O:": 7601,
  "O\\": 7602,
  "O_": 7603,
  "O}": 7604,
  "P ": 7605,
  "P$": 7606,
  "P(": 7607,
  "P)": 7608,
  "P^": 7609,
  "P_": 7610,
  "P}": 7611,
  "Q ": 7612,
  "Q(": 7613,
  "Q)": 7614,
  "Q_": 7615,
  "Q}": 7616,
  "R ": 7617,
  "R(": 7618,
  "R)": 7619,
  "R:": 7620,
  "R^": 7621,
  "R_": 7622,
  "R}": 7623,
  "S ": 7624,
  "S$": 7625,
  "S(": 7626,
  "S)": 7627,
  "S,": 7628,
  "S:": 7629,
  "S\\": 7630,
  "S^": 7631,
  "S_": 7632,
  "S|": 7633,
  "S}": 7634,
  "T ": 7635,
  "T$": 7636,
  "T(": 7637,
  "T)": 7638,
  "T:": 7639,
  "T\\": 7640,
  "T^": 7641,
  "T_": 7642,
  "T}": 7643,
  "U ": 7644,
  "U(": 7645,
  "U^": 7646,
  "U_": 7647,
  "U}": 7648,
  "V ": 7649,
  "V$": 7650,
  "V(": 7651,
  "V)": 7652,
  "V^": 7653,
  "V_": 7654,
  "W ": 7655,
  "W$": 7656,
  "W(": 7657,
  "W^": 7658,
  "W_": 7659,
  "W}": 7660,
  "X ": 7661,
  "X$": 7662,
  "X(": 7663,
  "X)": 7664,
  "X,": 7665,
  "X\\": 7666,
  "X^": 7667,
  "X_": 7668,
  "X}": 7669,
  "Y ": 7670,
  "Y)": 7671,
  "Y:": 7672,
  "Z ": 7673,
  "Z(": 7674,
  "Z_": 7675,
  "Z}": 7676,
  "[ ": 7677,
  "[0": 7678,
  "[1": 7679,
  "[G": 7680,
  "[[": 7681,
  "[\\": 7682,
  "[p": 7683,
  "[x": 7684,
  "\\ ": 7685,
  "\\!": 7686,
  "\\#": 7687,
  "\\(": 7688,
  "\\)": 7689,
  "\\,": 7690,
  "\\;": 7691,
  "\\B": 7692,
  "\\D": 7693,
  "\\G": 7694,
  "\\L": 7695,
  "\\O": 7696,
  "\\P": 7697,
  "\\R": 7698,
  "\\S": 7699,
  "\\T": 7700,
  "\\[": 7701,
  "\\\\": 7702,
  "\\]": 7703,
  "\\a": 7704,
  "\\b": 7705,
  "\\c": 7706,
  "\\d": 7707,
  "\\e": 7708,
  "\\f": 7709,
  "\\g": 7710,
  "\\h": 7711,
  "\\i": 7712,
  "\\k": 7713,
  "\\l": 7714,
  "\\m": 7715,
  "\\n": 7716,
  "\\o": 7717,
  "\\p": 7718,
  "\\q": 7719,
  "\\r": 7720,
  "\\s": 7721,
  "\\t": 7722,
  "\\v": 7723,
  "\\w": 7724,
  "\\x": 7725,
  "\\z": 7726,
  "\\{": 7727,
  "\\|": 7728,
  "\\}": 7729,
  "] ": 7730,
  "]$": 7731,
  "])": 7732,
  "]\\": 7733,
  "]]": 7734,
  "]^": 7735,
  "]}": 7736,
  "^*": 7737,
  "^+": 7738,
  "^-": 7739,
  "^0": 7740,
  "^1": 7741,
  "^2": 7742,
  "^3": 7743,
  "^4": 7744,
  "^5": 7745,
  "^6": 7746,
  "^G": 7747,
  "^L": 7748,
  "^N": 7749,
  "^\\": 7750,
  "^a": 7751,
  "^b": 7752,
  "^c": 7753,
  "^d": 7754,
  "^g": 7755,
  "^i": 7756,
  "^j": 7757,
  "^k": 7758,
  "^m": 7759,
  "^n": 7760,
  "^p": 7761,
  "^r": 7762,
  "^s": 7763,
  "^{": 7764,
  "_*": 7765,
  "_0": 7766,
  "_1": 7767,
  "_2": 7768,
  "_3": 7769,
  "_4": 7770,
  "_5": 7771,
  "_6": 7772,
  "_7": 7773,
  "_8": 7774,
  "_A": 7775,
  "_C": 7776,
  "_E": 7777,
  "_F": 7778,
  "_G": 7779,
  "_H": 7780,
  "_K": 7781,
  "_M": 7782,
  "_N": 7783,
  "_P": 7784,
  "_S": 7785,
  "_T": 7786,
  "_X": 7787,
  "_Y": 7788,
  "_\\": 7789,
  "_a": 7790,
  "_c": 7791,
  "_d": 7792,
  "_e": 7793,
  "_f": 7794,
  "_g": 7795,
  "_i": 7796,
  "_j": 7797,
  "_k": 7798,
  "_m": 7799,
  "_n": 7800,
  "_p": 7801,
  "_q": 7802,
  "_r": 7803,
  "_s": 7804,
  "_t": 7805,
  "_v": 7806,
  "_w": 7807,
  "_x": 7808,
  "_{": 7809,
  "a ": 7810,
  "a$": 7811,
  "a'": 7812,
  "a(": 7813,
  "a)": 7814,
  "a*": 7815,
  "a+": 7816,
  "a,": 7817,
  "a-": 7818,
  "a.": 7819,
  "a/": 7820,
  "a:": 7821,
  "a=": 7822,
  "a\\": 7823,
  "a]": 7824,
  "a^": 7825,
  "a_": 7826,
  "a|": 7827,
  "a}": 7828,
  "b ": 7829,
  "b(": 7830,
  "b)": 7831,
  "b,": 7832,
  "b\\": 7833,
  "b^": 7834,
  "b_": 7835,
  "b{": 7836,
  "b}": 7837,
  "c ": 7838,
  "c$": 7839,
  "c(": 7840,
  "c)": 7841,
  "c,": 7842,
  "c.": 7843,
  "c1": 7844,
  "c\\": 7845,
  "c^": 7846,
  "c_": 7847,
  "c{": 7848,
  "c}": 7849,
  "d ": 7850,
  "d$": 7851,
  "d'": 7852,
  "d(": 7853,
  "d)": 7854,
  "d,": 7855,
  "d-": 7856,
  "d.": 7857,
  "d:": 7858,
  "d;": 7859,
  "d=": 7860,
  "d?": 7861,
  "d\\": 7862,
  "d^": 7863,
  "d_": 7864,
  "d{": 7865,
  "d}": 7866,
  "e ": 7867,
  "e!": 7868,
  "e$": 7869,
  "e'": 7870,
  "e(": 7871,
  "e)": 7872,
  "e*": 7873,
  "e,": 7874,
  "e-": 7875,
  "e.": 7876,
  "e1": 7877,
  "e:": 7878,
  "e;": 7879,
  "e?": 7880,
  "e\\": 7881,
  "e^": 7882,
  "e_": 7883,
  "e{": 7884,
  "e}": 7885,
  "f ": 7886,
  "f$": 7887,
  "f'": 7888,
  "f(": 7889,
  "f)": 7890,
  "f,": 7891,
  "f-": 7892,
  "f.": 7893,
  "f:": 7894,
  "f\\": 7895,
  "f^": 7896,
  "f_": 7897,
  "f{": 7898,
  "f}": 7899,
  "g ": 7900,
  "g$": 7901,
  "g'": 7902,
  "g(": 7903,
  "g)": 7904,
  "g+": 7905,
  "g,": 7906,
  "g-": 7907,
  "g.": 7908,
  "g:": 7909,
  "g=": 7910,
  "g\\": 7911,
  "g^": 7912,
  "g_": 7913,
  "g{": 7914,
  "g|": 7915,
  "g}": 7916,
  "h ": 7917,
  "h'": 7918,
  "h(": 7919,
  "h)": 7920,
  "h,": 7921,
  "h-": 7922,
  "h.": 7923,
  "h:": 7924,
  "h^": 7925,
  "h_": 7926,
  "h{": 7927,
  "h}": 7928,
  "i ": 7929,
  "i$": 7930,
  "i'": 7931,
  "i(": 7932,
  "i)": 7933,
  "i+": 7934,
  "i,": 7935,
  "i-": 7936,
  "i.": 7937,
  "i/": 7938,
  "i:": 7939,
  "i=": 7940,
  "i\\": 7941,
  "i]": 7942,
  "i^": 7943,
  "i_": 7944,
  "i|": 7945,
  "i}": 7946,
  "j ": 7947,
  "j$": 7948,
  "j)": 7949,
  "j=": 7950,
  "j}": 7951,
  "k ": 7952,
  "k!": 7953,
  "k$": 7954,
  "k'": 7955,
  "k(": 7956,
  "k)": 7957,
  "k+": 7958,
  "k,": 7959,
  "k-": 7960,
  "k.": 7961,
  "k/": 7962,
  "k:": 7963,
  "k=": 7964,
  "k\\": 7965,
  "k^": 7966,
  "k_": 7967,
  "k{": 7968,
  "k}": 7969,
  "l ": 7970,
  "l$": 7971,
  "l'": 7972,
  "l(": 7973,
  "l)": 7974,
  "l,": 7975,
  "l-": 7976,
  "l.": 7977,
  "l:": 7978,
  "l\\": 7979,
  "l^": 7980,
  "l_": 7981,
  "l{": 7982,
  "l}": 7983,
  "m ": 7984,
  "m$": 7985,
  "m(": 7986,
  "m)": 7987,
  "m*": 7988,
  "m+": 7989,
  "m,": 7990,
  "m-": 7991,
  "m.": 7992,
  "m/": 7993,
  "m:": 7994,
  "m=": 7995,
  "m\\": 7996,
  "m^": 7997,
  "m_": 7998,
  "m{": 7999,
  "m}": 8000,
  "n ": 8001,
  "n!": 8002,
  "n$": 8003,
  "n'": 8004,
  "n(": 8005,
  "n)": 8006,
  "n*": 8007,
  "n+": 8008,
  "n,": 8009,
  "n-": 8010,
  "n.": 8011,
  "n/": 8012,
  "n1": 8013,
  "n2": 8014,
  "n:": 8015,
  "n;": 8016,
  "n=": 8017,
  "n?": 8018,
  "n\\": 8019,
  "n]": 8020,
  "n^": 8021,
  "n_": 8022,
  "n{": 8023,
  "n|": 8024,
  "n}": 8025,
  "o ": 8026,
  "o$": 8027,
  "o'": 8028,
  "o(": 8029,
  "o)": 8030,
  "o,": 8031,
  "o-": 8032,
  "o.": 8033,
  "o:": 8034,
  "o\\": 8035,
  "o^": 8036,
  "o_": 8037,
  "o}": 8038,
  "p ": 8039,
  "p$": 8040,
  "p(": 8041,
  "p)": 8042,
  "p+": 8043,
  "p,": 8044,
  "p-": 8045,
  "p.": 8046,
  "p/": 8047,
  "p=": 8048,
  "p[": 8049,
  "p\\": 8050,
  "p]": 8051,
  "p^": 8052,
  "p_": 8053,
  "p}": 8054,
  "q ": 8055,
  "q$": 8056,
  "q(": 8057,
  "q)": 8058,
  "q,": 8059,
  "q-": 8060,
  "q\\": 8061,
  "q^": 8062,
  "q_": 8063,
  "q}": 8064,
  "r ": 8065,
  "r$": 8066,
  "r'": 8067,
  "r(": 8068,
  "r)": 8069,
  "r*": 8070,
  "r,": 8071,
  "r-": 8072,
  "r.": 8073,
  "r:": 8074,
  "r;": 8075,
  "r?": 8076,
  "r\\": 8077,
  "r^": 8078,
  "r_": 8079,
  "r{": 8080,
  "r}": 8081,
  "s ": 8082,
  "s!": 8083,
  "s$": 8084,
  "s'": 8085,
  "s(": 8086,
  "s)": 8087,
  "s*": 8088,
  "s,": 8089,
  "s-": 8090,
  "s.": 8091,
  "s:": 8092,
  "s;": 8093,
  "s=": 8094,
  "s?": 8095,
  "s\\": 8096,
  "s^": 8097,
  "s_": 8098,
  "s}": 8099,
  "t ": 8100,
  "t$": 8101,
  "t'": 8102,
  "t(": 8103,
  "t)": 8104,
  "t*": 8105,
  "t,": 8106,
  "t-": 8107,
  "t.": 8108,
  "t:": 8109,
  "t;": 8110,
  "t?": 8111,
  "t[": 8112,
  "t\\": 8113,
  "t]": 8114,
  "t^": 8115,
  "t_": 8116,
  "t{": 8117,
  "t|": 8118,
  "t}": 8119,
  "u ": 8120,
  "u$": 8121,
  "u'": 8122,
  "u(": 8123,
  "u)": 8124,
  "u,": 8125,
  "u.": 8126,
  "u\\": 8127,
  "u^": 8128,
  "u_": 8129,
  "u}": 8130,
  "v ": 8131,
  "v$": 8132,
  "v)": 8133,
  "v,": 8134,
  "v-": 8135,
  "v\\": 8136,
  "v^": 8137,
  "v_": 8138,
  "v}": 8139,
  "w ": 8140,
  "w'": 8141,
  "w(": 8142,
  "w)": 8143,
  "w,": 8144,
  "w.": 8145,
  "w_": 8146,
  "w}": 8147,
  "x ": 8148,
  "x$": 8149,
  "x(": 8150,
  "x)": 8151,
  "x+": 8152,
  "x,": 8153,
  "x-": 8154,
  "x.": 8155,
  "x\\": 8156,
  "x^": 8157,
  "x_": 8158,
  "x}": 8159,
  "y ": 8160,
  "y$": 8161,
  "y'": 8162,
  "y(": 8163,
  "y)": 8164,
  "y*": 8165,
  "y,": 8166,
  "y-": 8167,
  "y.": 8168,
  "y:": 8169,
  "y;": 8170,
  "y\\": 8171,
  "y^": 8172,
  "y_": 8173,
  "y}": 8174,
  "z ": 8175,
  "z)": 8176,
  "z^": 8177,
  "z_": 8178,
  "z}": 8179,
  "{ ": 8180,
  "{(": 8181,
  "{*": 8182,
  "{-": 8183,
  "{0": 8184,
  "{1": 8185,
  "{2": 8186,
  "{3": 8187,
  "{4": 8188,
  "{5": 8189,
  "{6": 8190,
  "{7": 8191,
  "{8": 8192,
  "{9": 8193,
  "{A": 8194,
  "{B": 8195,
  "{C": 8196,
  "{D": 8197,
  "{E": 8198,
  "{F": 8199,
  "{G": 8200,
  "{H": 8201,
  "{I": 8202,
  "{J": 8203,
  "{K": 8204,
  "{L": 8205,
  "{M": 8206,
  "{N": 8207,
  "{O": 8208,
  "{P": 8209,
  "{Q": 8210,
  "{R": 8211,
  "{S": 8212,
  "{T": 8213,
  "{U": 8214,
  "{V": 8215,
  "{W": 8216,
  "{X": 8217,
  "{Z": 8218,
  "{[": 8219,
  "{\\": 8220,
  "{a": 8221,
  "{b": 8222,
  "{c": 8223,
  "{d": 8224,
  "{e": 8225,
  "{f": 8226,
  "{g": 8227,
  "{h": 8228,
  "{i": 8229,
  "{j": 8230,
  "{k": 8231,
  "{l": 8232,
  "{m": 8233,
  "{n": 8234,
  "{o": 8235,
  "{p": 8236,
  "{q": 8237,
  "{r": 8238,
  "{s": 8239,
  "{t": 8240,
  "{u": 8241,
  "{v": 8242,
  "{w": 8243,
  "{x": 8244,
  "{y": 8245,
  "{z": 8246,
  "{|": 8247,
  "| ": 8248,
  "|$": 8249,
  "|A": 8250,
  "|G": 8251,
  "|S": 8252,
  "|T": 8253,
  "|\\": 8254,
  "|^": 8255,
  "|_": 8256,
  "|a": 8257,
  "|f": 8258,
  "|x": 8259,
  "|z": 8260,
  "|}": 8261,
  "} ": 8262,
  "}$": 8263,
  "}'": 8264,
  "}(": 8265,
  "})": 8266,
  "}+": 8267,
  "},": 8268,
  "}-": 8269,
  "}.": 8270,
  "}/": 8271,
  "}:": 8272,
  "}=": 8273,
  "}[": 8274,
  "}\\": 8275,
  "}]": 8276,
  "}^": 8277,
  "}_": 8278,
  "}{": 8279,
  "}|": 8280,
  "}}": 8281,
  "é ": 8282,
  " —": 8283,
  "n‑": 8284,
  "t’": 8285,
  "— ": 8286,
  "’s": 8287,
  "   ": 8288,
  "  $": 8289,
  "  *": 8290,
  "  -": 8291,
  "  =": 8292,
  "  A": 8293,
  "  B": 8294,
  "  C": 8295,
  "  F": 8296,
  "  H": 8297,
  "  I": 8298,
  "  L": 8299,
  "  S": 8300,
  "  T": 8301,
  "  W": 8302,
  "  \\": 8303,
  "  a": 8304,
  "  i": 8305,
  " $ ": 8306,
  " $$": 8307,
  " $(": 8308,
  " $)": 8309,
  " $,": 8310,
  " $-": 8311,
  " $.": 8312,
  " $0": 8313,
  " $1": 8314,
  " $2": 8315,
  " $3": 8316,
  " $:": 8317,
  " $A": 8318,
  " $B": 8319,
  " $C": 8320,
  " $D": 8321,
  " $E": 8322,
  " $F": 8323,
  " $G": 8324,
  " $H": 8325,
  " $K": 8326,
  " $L": 8327,
  " $M": 8328,
  " $N": 8329,
  " $P": 8330,
  " $Q": 8331,
  " $R": 8332,
  " $S": 8333,
  " $T": 8334,
  " $V": 8335,
  " $W": 8336,
  " $X": 8337,
  " $Z": 8338,
  " $[": 8339,
  " $\\": 8340,
  " $a": 8341,
  " $b": 8342,
  " $c": 8343,
  " $d": 8344,
  " $e": 8345,
  " $f": 8346,
  " $g": 8347,
  " $h": 8348,
  " $i": 8349,
  " $k": 8350,
  " $m": 8351,
  " $n": 8352,
  " $p": 8353,
  " $q": 8354,
  " $r": 8355,
  " $s": 8356,
  " $t": 8357,
  " $u": 8358,
  " $v": 8359,
  " $w": 8360,
  " $x": 8361,
  " $|": 8362,
  " & ": 8363,
  " 't": 8364,
  " (-": 8365,
  " (0": 8366,
  " (1": 8367,
  " (2": 8368,
  " (3": 8369,
  " (A": 8370,
  " (S": 8371,
  " (T": 8372,
  " (\\": 8373,
  " (a": 8374,
  " (b": 8375,
  " (c": 8376,
  " (d": 8377,
  " (e": 8378,
  " (f": 8379,
  " (g": 8380,
  " (i": 8381,
  " (m": 8382,
  " (n": 8383,
  " (o": 8384,
  " (p": 8385,
  " (q": 8386,
  " (s": 8387,
  " (t": 8388,
  " (u": 8389,
  " (w": 8390,
  " (x": 8391,
  " * ": 8392,
  " **": 8393,
  " + ": 8394,
  " , ": 8395,
  " - ": 8396,
  " -1": 8397,
  " -2": 8398,
  " -\\": 8399,
  " . ": 8400,
  " / ": 8401,
  " 0 ": 8402,
  " 0$": 8403,
  " 0,": 8404,
  " 0.": 8405,
  " 0\\": 8406,
  " 0}": 8407,
  " 1 ": 8408,
  " 1$": 8409,
  " 1)": 8410,
  " 1,": 8411,
  " 1-": 8412,
  " 1.": 8413,
  " 1/": 8414,
  " 10": 8415,
  " 11": 8416,
  " 12": 8417,
  " 13": 8418,
  " 14": 8419,
  " 15": 8420,
  " 16": 8421,
  " 17": 8422,
  " 18": 8423,
  " 19": 8424,
  " 1:": 8425,
  " 1\\": 8426,
  " 1}": 8427,
  " 2 ": 8428,
  " 2$": 8429,
  " 2(": 8430,
  " 2)": 8431,
  " 2,": 8432,
  " 2-": 8433,
  " 2.": 8434,
  " 20": 8435,
  " 21": 8436,
  " 22": 8437,
  " 23": 8438,
  " 24": 8439,
  " 25": 8440,
  " 26": 8441,
  " 27": 8442,
  " 28": 8443,
  " 29": 8444,
  " 2:": 8445,
  " 2\\": 8446,
  " 2^": 8447,
  " 2g": 8448,
  " 2n": 8449,
  " 2}": 8450,
  " 3 ": 8451,
  " 3$": 8452,
  " 3,": 8453,
  " 3-": 8454,
  " 3.": 8455,
  " 30": 8456,
  " 31": 8457,
  " 32": 8458,
  " 33": 8459,
  " 34": 8460,
  " 35": 8461,
  " 3:": 8462,
  " 3\\": 8463,
  " 3^": 8464,
  " 4 ": 8465,
  " 4,": 8466,
  " 4-": 8467,
  " 4.": 8468,
  " 4:": 8469,
  " 4\\": 8470,
  " 5 ": 8471,
  " 5.": 8472,
  " 5:": 8473,
  " 5^": 8474,
  " 6 ": 8475,
  " 6.": 8476,
  " 6:": 8477,
  " 7 ": 8478,
  " 7:": 8479,
  " 8 ": 8480,
  " 8:": 8481,
  " 9 ": 8482,
  " 9:": 8483,
  " : ": 8484,
  " < ": 8485,
  " = ": 8486,
  " > ": 8487,
  " A ": 8488,
  " A(": 8489,
  " A^": 8490,
  " A_": 8491,
  " Ac": 8492,
  " Ad": 8493,
  " Al": 8494,
  " An": 8495,
  " Ap": 8496,
  " Ar": 8497,
  " As": 8498,
  " At": 8499,
  " B ": 8500,
  " B_": 8501,
  " Ba": 8502,
  " Be": 8503,
  " Bo": 8504,
  " Br": 8505,
  " Bu": 8506,
  " By": 8507,
  " C ": 8508,
  " C(": 8509,
  " CM": 8510,
  " C^": 8511,
  " C_": 8512,
  " Ca": 8513,
  " Ch": 8514,
  " Cl": 8515,
  " Co": 8516,
  " Cu": 8517,
  " D ": 8518,
  " D_": 8519,
  " De": 8520,
  " Di": 8521,
  " Do": 8522,
  " E ": 8523,
  " E(": 8524,
  " E_": 8525,
  " Ea": 8526,
  " Ei": 8527,
  " El": 8528,
  " En": 8529,
  " Eq": 8530,
  " Es": 8531,
  " Eu": 8532,
  " Ex": 8533,
  " F ": 8534,
  " F(": 8535,
  " F_": 8536,
  " Fa": 8537,
  " Fi": 8538,
  " Fo": 8539,
  " Fr": 8540,
  " Fu": 8541,
  " G ": 8542,
  " G$": 8543,
  " G(": 8544,
  " G/": 8545,
  " G_": 8546,
  " Ga": 8547,
  " Ge": 8548,
  " Go": 8549,
  " Gr": 8550,
  " G}": 8551,
  " H ": 8552,
  " H^": 8553,
  " H_": 8554,
  " Ha": 8555,
  " He": 8556,
  " Hi": 8557,
  " Ho": 8558,
  " I ": 8559,
  " I'": 8560,
  " II": 8561,
  " I_": 8562,
  " Id": 8563,
  " If": 8564,
  " In": 8565,
  " It": 8566,
  " Iw": 8567,
  " Ja": 8568,
  " Jo": 8569,
  " K ": 8570,
  " K3": 8571,
  " K_": 8572,
  " Ka": 8573,
  " Ke": 8574,
  " Ki": 8575,
  " Ko": 8576,
  " L ": 8577,
  " L(": 8578,
  " L-": 8579,
  " L^": 8580,
  " L_": 8581,
  " La": 8582,
  " Le": 8583,
  " Li": 8584,
  " Lo": 8585,
  " M ": 8586,
  " M_": 8587,
  " Ma": 8588,
  " Me": 8589,
  " Mi": 8590,
  " Mo": 8591,
  " Mu": 8592,
  " N ": 8593,
  " N(": 8594,
  " N_": 8595,
  " Ne": 8596,
  " No": 8597,
  " O(": 8598,
  " Or": 8599,
  " P ": 8600,
  " P(": 8601,
  " P_": 8602,
  " Pa": 8603,
  " Pe": 8604,
  " Pi": 8605,
  " Po": 8606,
  " Pr": 8607,
  " Q ": 8608,
  " Q_": 8609,
  " Qu": 8610,
  " R ": 8611,
  " R_": 8612,
  " Ra": 8613,
  " Re": 8614,
  " Ri": 8615,
  " Ro": 8616,
  " S ": 8617,
  " S$": 8618,
  " S(": 8619,
  " S^": 8620,
  " S_": 8621,
  " Sa": 8622,
  " Sc": 8623,
  " Se": 8624,
  " Sh": 8625,
  " Si": 8626,
  " So": 8627,
  " Sp": 8628,
  " St": 8629,
  " Su": 8630,
  " Sy": 8631,
  " S}": 8632,
  " T ": 8633,
  " T^": 8634,
  " T_": 8635,
  " Ta": 8636,
  " Te": 8637,
  " Th": 8638,
  " To": 8639,
  " Tr": 8640,
  " U ": 8641,
  " U_": 8642,
  " Un": 8643,
  " Us": 8644,
  " V ": 8645,
  " V(": 8646,
  " VI": 8647,
  " V_": 8648,
  " Va": 8649,
  " Ve": 8650,
  " W ": 8651,
  " W_": 8652,
  " Wa": 8653,
  " We": 8654,
  " Wh": 8655,
  " Wi": 8656,
  " X ": 8657,
  " X_": 8658,
  " Y ": 8659,
  " Z(": 8660,
  " Z_": 8661,
  " [0": 8662,
  " [\\": 8663,
  " \\#": 8664,
  " \\(": 8665,
  " \\)": 8666,
  " \\,": 8667,
  " \\D": 8668,
  " \\G": 8669,
  " \\L": 8670,
  " \\O": 8671,
  " \\P": 8672,
  " \\R": 8673,
  " \\S": 8674,
  " \\[": 8675,
  " \\\\": 8676,
  " \\]": 8677,
  " \\a": 8678,
  " \\b": 8679,
  " \\c": 8680,
  " \\d": 8681,
  " \\e": 8682,
  " \\f": 8683,
  " \\g": 8684,
  " \\h": 8685,
  " \\i": 8686,
  " \\k": 8687,
  " \\l": 8688,
  " \\m": 8689,
  " \\n": 8690,
  " \\o": 8691,
  " \\p": 8692,
  " \\q": 8693,
  " \\r": 8694,
  " \\s": 8695,
  " \\t": 8696,
  " \\v": 8697,
  " \\w": 8698,
  " \\x": 8699,
  " \\z": 8700,
  " \\{": 8701,
  " \\|": 8702,
  " \\}": 8703,
  " a ": 8704,
  " a,": 8705,
  " a^": 8706,
  " a_": 8707,
  " ab": 8708,
  " ac": 8709,
  " ad": 8710,
  " af": 8711,
  " ag": 8712,
  " al": 8713,
  " am": 8714,
  " an": 8715,
  " ap": 8716,
  " ar": 8717,
  " as": 8718,
  " at": 8719,
  " au": 8720,
  " av": 8721,
  " aw": 8722,
  " b ": 8723,
  " b^": 8724,
  " b_": 8725,
  " ba": 8726,
  " be": 8727,
  " bi": 8728,
  " bl": 8729,
  " bo": 8730,
  " br": 8731,
  " bu": 8732,
  " by": 8733,
  " c ": 8734,
  " c^": 8735,
  " c_": 8736,
  " ca": 8737,
  " ce": 8738,
  " ch": 8739,
  " ci": 8740,
  " cl": 8741,
  " co": 8742,
  " cr": 8743,
  " cu": 8744,
  " cy": 8745,
  " d ": 8746,
  " d(": 8747,
  " d\\": 8748,
  " d_": 8749,
  " da": 8750,
  " de": 8751,
  " di": 8752,
  " do": 8753,
  " dr": 8754,
  " ds": 8755,
  " dt": 8756,
  " du": 8757,
  " dx": 8758,
  " e ": 8759,
  " e^": 8760,
  " e_": 8761,
  " ea": 8762,
  " ed": 8763,
  " ef": 8764,
  " ei": 8765,
  " el": 8766,
  " em": 8767,
  " en": 8768,
  " eq": 8769,
  " er": 8770,
  " es": 8771,
  " et": 8772,
  " ev": 8773,
  " ex": 8774,
  " f ": 8775,
  " f(": 8776,
  " f^": 8777,
  " f_": 8778,
  " fa": 8779,
  " fe": 8780,
  " fi": 8781,
  " fl": 8782,
  " fo": 8783,
  " fr": 8784,
  " fu": 8785,
  " g ": 8786,
  " g(": 8787,
  " g^": 8788,
  " g_": 8789,
  " ga": 8790,
  " ge": 8791,
  " gi": 8792,
  " gl": 8793,
  " go": 8794,
  " gr": 8795,
  " h ": 8796,
  " h(": 8797,
  " h^": 8798,
  " h_": 8799,
  " ha": 8800,
  " he": 8801,
  " hi": 8802,
  " ho": 8803,
  " hu": 8804,
  " hy": 8805,
  " i ": 8806,
  " i.": 8807,
  " id": 8808,
  " if": 8809,
  " im": 8810,
  " in": 8811,
  " ir": 8812,
  " is": 8813,
  " it": 8814,
  " j ": 8815,
  " ju": 8816,
  " k ": 8817,
  " k(": 8818,
  " k=": 8819,
  " k^": 8820,
  " k_": 8821,
  " ke": 8822,
  " ki": 8823,
  " kn": 8824,
  " k}": 8825,
  " la": 8826,
  " le": 8827,
  " li": 8828,
  " lo": 8829,
  " m ": 8830,
  " m^": 8831,
  " m_": 8832,
  " ma": 8833,
  " me": 8834,
  " mi": 8835,
  " mo": 8836,
  " mu": 8837,
  " my": 8838,
  " n ": 8839,
  " n$": 8840,
  " n)": 8841,
  " n-": 8842,
  " n/": 8843,
  " n=": 8844,
  " n\\": 8845,
  " n^": 8846,
  " n_": 8847,
  " na": 8848,
  " ne": 8849,
  " ni": 8850,
  " no": 8851,
  " nu": 8852,
  " n}": 8853,
  " o(": 8854,
  " ob": 8855,
  " oc": 8856,
  " od": 8857,
  " of": 8858,
  " on": 8859,
  " op": 8860,
  " or": 8861,
  " ot": 8862,
  " ou": 8863,
  " ov": 8864,
  " p ": 8865,
  " p$": 8866,
  " p-": 8867,
  " p\\": 8868,
  " p^": 8869,
  " p_": 8870,
  " pa": 8871,
  " pe": 8872,
  " ph": 8873,
  " pi": 8874,
  " pl": 8875,
  " po": 8876,
  " pr": 8877,
  " ps": 8878,
  " pu": 8879,
  " p}": 8880,
  " q ": 8881,
  " q^": 8882,
  " q_": 8883,
  " qu": 8884,
  " r ": 8885,
  " r^": 8886,
  " r_": 8887,
  " ra": 8888,
  " re": 8889,
  " ri": 8890,
  " ro": 8891,
  " ru": 8892,
  " s ": 8893,
  " s)": 8894,
  " s=": 8895,
  " s_": 8896,
  " sa": 8897,
  " sc": 8898,
  " se": 8899,
  " sh": 8900,
  " si": 8901,
  " sl": 8902,
  " sm": 8903,
  " so": 8904,
  " sp": 8905,
  " sq": 8906,
  " st": 8907,
  " su": 8908,
  " sw": 8909,
  " sy": 8910,
  " t ": 8911,
  " t^": 8912,
  " ta": 8913,
  " te": 8914,
  " th": 8915,
  " ti": 8916,
  " to": 8917,
  " tr": 8918,
  " tu": 8919,
  " tw": 8920,
  " ty": 8921,
  " u ": 8922,
  " u^": 8923,
  " u_": 8924,
  " un": 8925,
  " up": 8926,
  " us": 8927,
  " v ": 8928,
  " v_": 8929,
  " va": 8930,
  " ve": 8931,
  " vi": 8932,
  " vo": 8933,
  " w ": 8934,
  " w_": 8935,
  " wa": 8936,
  " we": 8937,
  " wh": 8938,
  " wi": 8939,
  " wo": 8940,
  " wr": 8941,
  " x ": 8942,
  " x)": 8943,
  " x,": 8944,
  " x^": 8945,
  " x_": 8946,
  " x}": 8947,
  " y ": 8948,
  " y^": 8949,
  " ye": 8950,
  " yi": 8951,
  " yo": 8952,
  " z ": 8953,
  " z^": 8954,
  " ze": 8955,
  " | ": 8956,
  " |G": 8957,
  " |S": 8958,
  " |\\": 8959,
  " } ": 8960,
  "! \\": 8961,
  "!} ": 8962,
  "# S": 8963,
  "## ": 8964,
  "$ (": 8965,
  "$ -": 8966,
  "$ 0": 8967,
  "$ 1": 8968,
  "$ 2": 8969,
  "$ 3": 8970,
  "$ A": 8971,
  "$ B": 8972,
  "$ C": 8973,
  "$ D": 8974,
  "$ E": 8975,
  "$ F": 8976,
  "$ G": 8977,
  "$ H": 8978,
  "$ K": 8979,
  "$ L": 8980,
  "$ M": 8981,
  "$ N": 8982,
  "$ P": 8983,
  "$ Q": 8984,
  "$ R": 8985,
  "$ S": 8986,
  "$ T": 8987,
  "$ W": 8988,
  "$ X": 8989,
  "$ [": 8990,
  "$ \\": 8991,
  "$ a": 8992,
  "$ b": 8993,
  "$ c": 8994,
  "$ d": 8995,
  "$ e": 8996,
  "$ f": 8997,
  "$ g": 8998,
  "$ h": 8999,
  "$ i": 9000,
  "$ k": 9001,
  "$ l": 9002,
  "$ m": 9003,
  "$ n": 9004,
  "$ o": 9005,
  "$ p": 9006,
  "$ q": 9007,
  "$ r": 9008,
  "$ s": 9009,
  "$ t": 9010,
  "$ u": 9011,
  "$ v": 9012,
  "$ w": 9013,
  "$ x": 9014,
  "$ |": 9015,
  "$$\\": 9016,
  "$(\\": 9017,
  "$) ": 9018,
  "$),": 9019,
  "$).": 9020,
  "$**": 9021,
  "$, ": 9022,
  "$-a": 9023,
  "$-c": 9024,
  "$-e": 9025,
  "$-f": 9026,
  "$-i": 9027,
  "$-m": 9028,
  "$-r": 9029,
  "$-s": 9030,
  "$-t": 9031,
  "$. ": 9032,
  "$.*": 9033,
  "$1 ": 9034,
  "$1$": 9035,
  "$2$": 9036,
  "$2^": 9037,
  "$: ": 9038,
  "$? ": 9039,
  "$A$": 9040,
  "$A_": 9041,
  "$C_": 9042,
  "$E$": 9043,
  "$E_": 9044,
  "$G ": 9045,
  "$G$": 9046,
  "$G_": 9047,
  "$H$": 9048,
  "$H^": 9049,
  "$H_": 9050,
  "$K$": 9051,
  "$K_": 9052,
  "$L$": 9053,
  "$L(": 9054,
  "$L_": 9055,
  "$M$": 9056,
  "$M_": 9057,
  "$N$": 9058,
  "$N_": 9059,
  "$P(": 9060,
  "$P_": 9061,
  "$S$": 9062,
  "$S^": 9063,
  "$S_": 9064,
  "$T$": 9065,
  "$X$": 9066,
  "$X_": 9067,
  "$\\D": 9068,
  "$\\G": 9069,
  "$\\P": 9070,
  "$\\a": 9071,
  "$\\b": 9072,
  "$\\c": 9073,
  "$\\d": 9074,
  "$\\e": 9075,
  "$\\f": 9076,
  "$\\g": 9077,
  "$\\i": 9078,
  "$\\l": 9079,
  "$\\m": 9080,
  "$\\o": 9081,
  "$\\p": 9082,
  "$\\r": 9083,
  "$\\s": 9084,
  "$\\t": 9085,
  "$\\{": 9086,
  "$a ": 9087,
  "$a_": 9088,
  "$b_": 9089,
  "$c_": 9090,
  "$d ": 9091,
  "$d$": 9092,
  "$d_": 9093,
  "$f$": 9094,
  "$f(": 9095,
  "$f_": 9096,
  "$g ": 9097,
  "$g$": 9098,
  "$k ": 9099,
  "$k$": 9100,
  "$m$": 9101,
  "$n ": 9102,
  "$n$": 9103,
  "$n_": 9104,
  "$p ": 9105,
  "$p$": 9106,
  "$p^": 9107,
  "$q$": 9108,
  "$x ": 9109,
  "$|G": 9110,
  "$|\\": 9111,
  "& 0": 9112,
  "& \\": 9113,
  "' \\": 9114,
  "' i": 9115,
  "' r": 9116,
  "'d ": 9117,
  "'ll": 9118,
  "'s ": 9119,
  "'t ": 9120,
  "( (": 9121,
  "( -": 9122,
  "( 1": 9123,
  "( 2": 9124,
  "( 3": 9125,
  "( A": 9126,
  "( B": 9127,
  "( C": 9128,
  "( D": 9129,
  "( E": 9130,
  "( F": 9131,
  "( G": 9132,
  "( H": 9133,
  "( K": 9134,
  "( L": 9135,
  "( M": 9136,
  "( N": 9137,
  "( P": 9138,
  "( Q": 9139,
  "( R": 9140,
  "( S": 9141,
  "( T": 9142,
  "( U": 9143,
  "( V": 9144,
  "( W": 9145,
  "( X": 9146,
  "( [": 9147,
  "( \\": 9148,
  "( a": 9149,
  "( b": 9150,
  "( c": 9151,
  "( d": 9152,
  "( e": 9153,
  "( f": 9154,
  "( g": 9155,
  "( h": 9156,
  "( i": 9157,
  "( k": 9158,
  "( m": 9159,
  "( n": 9160,
  "( p": 9161,
  "( q": 9162,
  "( r": 9163,
  "( s": 9164,
  "( t": 9165,
  "( u": 9166,
  "( v": 9167,
  "( w": 9168,
  "( x": 9169,
  "( z": 9170,
  "( |": 9171,
  "(-1": 9172,
  "(0)": 9173,
  "(0,": 9174,
  "(1 ": 9175,
  "(1)": 9176,
  "(1+": 9177,
  "(1,": 9178,
  "(1-": 9179,
  "(1/": 9180,
  "(10": 9181,
  "(2)": 9182,
  "(2,": 9183,
  "(20": 9184,
  "(2\\": 9185,
  "(2g": 9186,
  "(3)": 9187,
  "(4)": 9188,
  "(A)": 9189,
  "(A_": 9190,
  "(B)": 9191,
  "(C)": 9192,
  "(C,": 9193,
  "(C_": 9194,
  "(E)": 9195,
  "(E,": 9196,
  "(E/": 9197,
  "(G)": 9198,
  "(G,": 9199,
  "(G\\": 9200,
  "(G_": 9201,
  "(H)": 9202,
  "(K)": 9203,
  "(K_": 9204,
  "(L)": 9205,
  "(L_": 9206,
  "(M)": 9207,
  "(M,": 9208,
  "(M;": 9209,
  "(M_": 9210,
  "(N)": 9211,
  "(P)": 9212,
  "(P_": 9213,
  "(S)": 9214,
  "(S^": 9215,
  "(T)": 9216,
  "(T_": 9217,
  "(V)": 9218,
  "(X)": 9219,
  "(X,": 9220,
  "(X_": 9221,
  "(Y)": 9222,
  "(\\D": 9223,
  "(\\G": 9224,
  "(\\P": 9225,
  "(\\S": 9226,
  "(\\a": 9227,
  "(\\b": 9228,
  "(\\c": 9229,
  "(\\d": 9230,
  "(\\e": 9231,
  "(\\f": 9232,
  "(\\g": 9233,
  "(\\l": 9234,
  "(\\m": 9235,
  "(\\o": 9236,
  "(\\p": 9237,
  "(\\r": 9238,
  "(\\s": 9239,
  "(\\t": 9240,
  "(\\x": 9241,
  "(\\z": 9242,
  "(a ": 9243,
  "(a)": 9244,
  "(a,": 9245,
  "(a_": 9246,
  "(as": 9247,
  "(b)": 9248,
  "(by": 9249,
  "(c)": 9250,
  "(d)": 9251,
  "(e)": 9252,
  "(f)": 9253,
  "(g)": 9254,
  "(g-": 9255,
  "(g_": 9256,
  "(h)": 9257,
  "(i)": 9258,
  "(i.": 9259,
  "(in": 9260,
  "(k)": 9261,
  "(k-": 9262,
  "(m)": 9263,
  "(n)": 9264,
  "(n+": 9265,
  "(n,": 9266,
  "(n-": 9267,
  "(n\\": 9268,
  "(n^": 9269,
  "(p)": 9270,
  "(p-": 9271,
  "(p\\": 9272,
  "(p^": 9273,
  "(q)": 9274,
  "(q^": 9275,
  "(r)": 9276,
  "(s)": 9277,
  "(s,": 9278,
  "(si": 9279,
  "(t)": 9280,
  "(th": 9281,
  "(u)": 9282,
  "(w)": 9283,
  "(wh": 9284,
  "(x)": 9285,
  "(x,": 9286,
  "(x^": 9287,
  "(x_": 9288,
  "(y)": 9289,
  "(z)": 9290,
  ")  ": 9291,
  ") $": 9292,
  ") (": 9293,
  ") +": 9294,
  ") -": 9295,
  ") :": 9296,
  ") <": 9297,
  ") =": 9298,
  ") >": 9299,
  ") \\": 9300,
  ") a": 9301,
  ") b": 9302,
  ") c": 9303,
  ") d": 9304,
  ") e": 9305,
  ") f": 9306,
  ") g": 9307,
  ") h": 9308,
  ") i": 9309,
  ") l": 9310,
  ") m": 9311,
  ") o": 9312,
  ") p": 9313,
  ") r": 9314,
  ") s": 9315,
  ") t": 9316,
  ") u": 9317,
  ") v": 9318,
  ") w": 9319,
  ")!}": 9320,
  ")$ ": 9321,
  ")$$": 9322,
  ")$,": 9323,
  ")$.": 9324,
  ")) ": 9325,
  "))$": 9326,
  ")),": 9327,
  ")).": 9328,
  ")**": 9329,
  "), ": 9330,
  ")-a": 9331,
  ")-e": 9332,
  ")-f": 9333,
  ")-i": 9334,
  ")-m": 9335,
  ")-s": 9336,
  ")-t": 9337,
  "). ": 9338,
  ").*": 9339,
  ")/2": 9340,
  ")/\\": 9341,
  "): ": 9342,
  ")=0": 9343,
  ")=1": 9344,
  ")=\\": 9345,
  ")\\)": 9346,
  ")\\c": 9347,
  ")\\l": 9348,
  ")\\|": 9349,
  ")^2": 9350,
  ")^\\": 9351,
  ")^k": 9352,
  ")^n": 9353,
  ")^{": 9354,
  ")_{": 9355,
  ")| ": 9356,
  ")|^": 9357,
  ")} ": 9358,
  ")}$": 9359,
  ")}(": 9360,
  ")})": 9361,
  ")}.": 9362,
  ")}\\": 9363,
  ")}{": 9364,
  ")}}": 9365,
  "*  ": 9366,
  "* $": 9367,
  "* F": 9368,
  "* T": 9369,
  "* W": 9370,
  "* \\": 9371,
  "*(\\": 9372,
  "** ": 9373,
  "**:": 9374,
  "**C": 9375,
  "**S": 9376,
  "*: ": 9377,
  "*Co": 9378,
  "*St": 9379,
  "+ (": 9380,
  "+ 1": 9381,
  "+ 2": 9382,
  "+ 3": 9383,
  "+ 4": 9384,
  "+ 5": 9385,
  "+ O": 9386,
  "+ \\": 9387,
  "+ a": 9388,
  "+ b": 9389,
  "+ c": 9390,
  "+ n": 9391,
  "+ o": 9392,
  "+ p": 9393,
  "+ q": 9394,
  "+ x": 9395,
  "+ y": 9396,
  "+1 ": 9397,
  "+1$": 9398,
  "+1)": 9399,
  "+1}": 9400,
  "+2}": 9401,
  ", $": 9402,
  ", (": 9403,
  ", -": 9404,
  ", 0": 9405,
  ", 1": 9406,
  ", 2": 9407,
  ", 3": 9408,
  ", 4": 9409,
  ", 5": 9410,
  ", B": 9411,
  ", G": 9412,
  ", I": 9413,
  ", K": 9414,
  ", L": 9415,
  ", P": 9416,
  ", S": 9417,
  ", T": 9418,
  ", \\": 9419,
  ", a": 9420,
  ", b": 9421,
  ", c": 9422,
  ", d": 9423,
  ", e": 9424,
  ", f": 9425,
  ", g": 9426,
  ", h": 9427,
  ", i": 9428,
  ", k": 9429,
  ", l": 9430,
  ", m": 9431,
  ", n": 9432,
  ", o": 9433,
  ", p": 9434,
  ", q": 9435,
  ", r": 9436,
  ", s": 9437,
  ", t": 9438,
  ", u": 9439,
  ", v": 9440,
  ", w": 9441,
  ", x": 9442,
  ", y": 9443,
  ",0)": 9444,
  ",0}": 9445,
  ",1)": 9446,
  ",1,": 9447,
  ",1]": 9448,
  ",1}": 9449,
  ",2)": 9450,
  ",2,": 9451,
  ",\\;": 9452,
  ",\\b": 9453,
  ",\\c": 9454,
  ",\\d": 9455,
  ",\\m": 9456,
  ",\\o": 9457,
  ",\\q": 9458,
  ",b,": 9459,
  ",n)": 9460,
  ",n}": 9461,
  ",y)": 9462,
  "- $": 9463,
  "- (": 9464,
  "- 1": 9465,
  "- 2": 9466,
  "- 3": 9467,
  "- 4": 9468,
  "- F": 9469,
  "- I": 9470,
  "- T": 9471,
  "- \\": 9472,
  "- a": 9473,
  "- p": 9474,
  "- q": 9475,
  "- x": 9476,
  "---": 9477,
  "-1 ": 9478,
  "-1$": 9479,
  "-1)": 9480,
  "-1,": 9481,
  "-1/": 9482,
  "-1\\": 9483,
  "-1}": 9484,
  "-2 ": 9485,
  "-2)": 9486,
  "-2}": 9487,
  "-3}": 9488,
  "-Lu": 9489,
  "-Pe": 9490,
  "-Wi": 9491,
  "-Ya": 9492,
  "-\\f": 9493,
  "-\\l": 9494,
  "-ab": 9495,
  "-ac": 9496,
  "-ad": 9497,
  "-al": 9498,
  "-cl": 9499,
  "-co": 9500,
  "-cy": 9501,
  "-de": 9502,
  "-di": 9503,
  "-eq": 9504,
  "-ex": 9505,
  "-fo": 9506,
  "-fr": 9507,
  "-fu": 9508,
  "-gr": 9509,
  "-in": 9510,
  "-i}": 9511,
  "-k}": 9512,
  "-ma": 9513,
  "-mo": 9514,
  "-or": 9515,
  "-pa": 9516,
  "-po": 9517,
  "-pr": 9518,
  "-ra": 9519,
  "-re": 9520,
  "-st": 9521,
  "-su": 9522,
  "-s}": 9523,
  "-th": 9524,
  "-to": 9525,
  "-tr": 9526,
  "-va": 9527,
  "-ze": 9528,
  ".  ": 9529,
  ". $": 9530,
  ". *": 9531,
  ". A": 9532,
  ". B": 9533,
  ". C": 9534,
  ". D": 9535,
  ". E": 9536,
  ". F": 9537,
  ". H": 9538,
  ". I": 9539,
  ". L": 9540,
  ". M": 9541,
  ". N": 9542,
  ". O": 9543,
  ". P": 9544,
  ". R": 9545,
  ". S": 9546,
  ". T": 9547,
  ". U": 9548,
  ". W": 9549,
  ". \\": 9550,
  ".$$": 9551,
  ".**": 9552,
  "., ": 9553,
  ".e.": 9554,
  ".} ": 9555,
  ".}}": 9556,
  "/ \\": 9557,
  "/2 ": 9558,
  "/2$": 9559,
  "/2)": 9560,
  "/2\\": 9561,
  "/2}": 9562,
  "/3}": 9563,
  "/4 ": 9564,
  "/4}": 9565,
  "/K)": 9566,
  "/\\m": 9567,
  "0 $": 9568,
  "0 &": 9569,
  "0 +": 9570,
  "0 =": 9571,
  "0 \\": 9572,
  "0 i": 9573,
  "0$ ": 9574,
  "0$,": 9575,
  "0$.": 9576,
  "0(X": 9577,
  "0(\\": 9578,
  "0) ": 9579,
  "0, ": 9580,
  "0,0": 9581,
  "0,1": 9582,
  "0,\\": 9583,
  "0. ": 9584,
  "00 ": 9585,
  "000": 9586,
  "00}": 9587,
  "023": 9588,
  "024": 9589,
  "025": 9590,
  "0: ": 9591,
  "0\\)": 9592,
  "0\\}": 9593,
  "0^1": 9594,
  "0^{": 9595,
  "0} ": 9596,
  "0}$": 9597,
  "0}(": 9598,
  "0}^": 9599,
  "1 $": 9600,
  "1 +": 9601,
  "1 -": 9602,
  "1 =": 9603,
  "1 \\": 9604,
  "1 i": 9605,
  "1$ ": 9606,
  "1$,": 9607,
  "1$.": 9608,
  "1(M": 9609,
  "1(X": 9610,
  "1(\\": 9611,
  "1) ": 9612,
  "1)$": 9613,
  "1)(": 9614,
  "1))": 9615,
  "1),": 9616,
  "1).": 9617,
  "1)/": 9618,
  "1)\\": 9619,
  "1)^": 9620,
  "1)}": 9621,
  "1, ": 9622,
  "1,0": 9623,
  "1,1": 9624,
  "1,2": 9625,
  "1,\\": 9626,
  "1-\\": 9627,
  "1. ": 9628,
  "1/2": 9629,
  "1/4": 9630,
  "1/\\": 9631,
  "10 ": 9632,
  "10.": 9633,
  "100": 9634,
  "101": 9635,
  "10:": 9636,
  "10^": 9637,
  "10}": 9638,
  "11 ": 9639,
  "11.": 9640,
  "111": 9641,
  "11:": 9642,
  "11}": 9643,
  "12 ": 9644,
  "12.": 9645,
  "12:": 9646,
  "12}": 9647,
  "13 ": 9648,
  "13.": 9649,
  "13:": 9650,
  "14.": 9651,
  "14:": 9652,
  "15.": 9653,
  "15:": 9654,
  "16 ": 9655,
  "16.": 9656,
  "16:": 9657,
  "17:": 9658,
  "18:": 9659,
  "19:": 9660,
  "1: ": 9661,
  "1\\)": 9662,
  "1\\}": 9663,
  "1] ": 9664,
  "1^2": 9665,
  "1^{": 9666,
  "1} ": 9667,
  "1}$": 9668,
  "1}(": 9669,
  "1})": 9670,
  "1},": 9671,
  "1}.": 9672,
  "1}\\": 9673,
  "1}^": 9674,
  "1}{": 9675,
  "1}}": 9676,
  "2 $": 9677,
  "2 +": 9678,
  "2 -": 9679,
  "2 =": 9680,
  "2 \\": 9681,
  "2 d": 9682,
  "2 i": 9683,
  "2$ ": 9684,
  "2$,": 9685,
  "2$-": 9686,
  "2$.": 9687,
  "2' ": 9688,
  "2(M": 9689,
  "2(X": 9690,
  "2(\\": 9691,
  "2) ": 9692,
  "2)$": 9693,
  "2)^": 9694,
  "2)}": 9695,
  "2, ": 9696,
  "2,1": 9697,
  "2,2": 9698,
  "2,3": 9699,
  "2,\\": 9700,
  "2-1": 9701,
  "2. ": 9702,
  "202": 9703,
  "20:": 9704,
  "21:": 9705,
  "22:": 9706,
  "23 ": 9707,
  "23:": 9708,
  "23}": 9709,
  "24 ": 9710,
  "24:": 9711,
  "24}": 9712,
  "25 ": 9713,
  "25:": 9714,
  "25}": 9715,
  "26:": 9716,
  "27 ": 9717,
  "27:": 9718,
  "28:": 9719,
  "29:": 9720,
  "2: ": 9721,
  "2\\)": 9722,
  "2\\c": 9723,
  "2\\l": 9724,
  "2\\m": 9725,
  "2\\p": 9726,
  "2\\s": 9727,
  "2^+": 9728,
  "2^2": 9729,
  "2^k": 9730,
  "2^{": 9731,
  "2g ": 9732,
  "2g-": 9733,
  "2g}": 9734,
  "2k-": 9735,
  "2k}": 9736,
  "2m}": 9737,
  "2n ": 9738,
  "2n}": 9739,
  "2} ": 9740,
  "2}$": 9741,
  "2}(": 9742,
  "2})": 9743,
  "2},": 9744,
  "2}.": 9745,
  "2}\\": 9746,
  "2}^": 9747,
  "2}{": 9748,
  "2}}": 9749,
  "3 $": 9750,
  "3 +": 9751,
  "3 -": 9752,
  "3 =": 9753,
  "3 \\": 9754,
  "3$ ": 9755,
  "3$,": 9756,
  "3$.": 9757,
  "3) ": 9758,
  "3, ": 9759,
  "3. ": 9760,
  "3/2": 9761,
  "30:": 9762,
  "31:": 9763,
  "32:": 9764,
  "33:": 9765,
  "34:": 9766,
  "35:": 9767,
  "3: ": 9768,
  "3^{": 9769,
  "3g-": 9770,
  "3} ": 9771,
  "3}$": 9772,
  "3}\\": 9773,
  "3}{": 9774,
  "3}}": 9775,
  "4 $": 9776,
  "4 +": 9777,
  "4 -": 9778,
  "4 =": 9779,
  "4 \\": 9780,
  "4$ ": 9781,
  "4$,": 9782,
  "4$.": 9783,
  "4) ": 9784,
  "4, ": 9785,
  "4-m": 9786,
  "4. ": 9787,
  "4: ": 9788,
  "4\\p": 9789,
  "4} ": 9790,
  "4}$": 9791,
  "4}{": 9792,
  "4}}": 9793,
  "5 $": 9794,
  "5 =": 9795,
  "5 \\": 9796,
  "5$ ": 9797,
  "5) ": 9798,
  "5, ": 9799,
  "5. ": 9800,
  "5: ": 9801,
  "5} ": 9802,
  "6 $": 9803,
  "6 =": 9804,
  "6 \\": 9805,
  "6, ": 9806,
  "6. ": 9807,
  "6: ": 9808,
  "6g-": 9809,
  "6} ": 9810,
  "7 $": 9811,
  "7 \\": 9812,
  "7, ": 9813,
  "7. ": 9814,
  "7: ": 9815,
  "7} ": 9816,
  "8 $": 9817,
  "8 \\": 9818,
  "8, ": 9819,
  "8. ": 9820,
  "8: ": 9821,
  "8} ": 9822,
  "9 \\": 9823,
  "9, ": 9824,
  "9. ": 9825,
  "9: ": 9826,
  ":  ": 9827,
  ": $": 9828,
  ": A": 9829,
  ": B": 9830,
  ": C": 9831,
  ": D": 9832,
  ": E": 9833,
  ": F": 9834,
  ": G": 9835,
  ": H": 9836,
  ": I": 9837,
  ": K": 9838,
  ": L": 9839,
  ": M": 9840,
  ": N": 9841,
  ": O": 9842,
  ": P": 9843,
  ": R": 9844,
  ": S": 9845,
  ": T": 9846,
  ": U": 9847,
  ": V": 9848,
  ": W": 9849,
  ": \\": 9850,
  ": a": 9851,
  ": f": 9852,
  ": i": 9853,
  ": t": 9854,
  ":**": 9855,
  ":} ": 9856,
  "; \\": 9857,
  "; a": 9858,
  "; i": 9859,
  "; t": 9860,
  ";\\m": 9861,
  "< 1": 9862,
  "< \\": 9863,
  "= (": 9864,
  "= -": 9865,
  "= 0": 9866,
  "= 1": 9867,
  "= 2": 9868,
  "= 3": 9869,
  "= 4": 9870,
  "= 5": 9871,
  "= 6": 9872,
  "= 7": 9873,
  "= 8": 9874,
  "= 9": 9875,
  "= A": 9876,
  "= C": 9877,
  "= G": 9878,
  "= I": 9879,
  "= S": 9880,
  "= T": 9881,
  "= [": 9882,
  "= \\": 9883,
  "= a": 9884,
  "= b": 9885,
  "= c": 9886,
  "= d": 9887,
  "= e": 9888,
  "= f": 9889,
  "= g": 9890,
  "= k": 9891,
  "= m": 9892,
  "= n": 9893,
  "= p": 9894,
  "= q": 9895,
  "= r": 9896,
  "= s": 9897,
  "= x": 9898,
  "= |": 9899,
  "=0 ": 9900,
  "=0$": 9901,
  "=0}": 9902,
  "=1 ": 9903,
  "=1$": 9904,
  "=1,": 9905,
  "=1}": 9906,
  "=2 ": 9907,
  "=\\f": 9908,
  "=\\s": 9909,
  "> 0": 9910,
  "> 1": 9911,
  "> \\": 9912,
  "? N": 9913,
  "A $": 9914,
  "A =": 9915,
  "A \\": 9916,
  "A$ ": 9917,
  "A) ": 9918,
  "A, ": 9919,
  "A^*": 9920,
  "A^{": 9921,
  "A_5": 9922,
  "A_n": 9923,
  "A_{": 9924,
  "As ": 9925,
  "At ": 9926,
  "A} ": 9927,
  "A}$": 9928,
  "A})": 9929,
  "A}_": 9930,
  "B =": 9931,
  "B \\": 9932,
  "B) ": 9933,
  "B_{": 9934,
  "By ": 9935,
  "B} ": 9936,
  "B}(": 9937,
  "B}_": 9938,
  "C =": 9939,
  "C \\": 9940,
  "C) ": 9941,
  "CM ": 9942,
  "CP}": 9943,
  "C_2": 9944,
  "C_{": 9945,
  "C} ": 9946,
  "C}$": 9947,
  "C}(": 9948,
  "C})": 9949,
  "C}^": 9950,
  "C}_": 9951,
  "C}}": 9952,
  "D I": 9953,
  "D \\": 9954,
  "DT}": 9955,
  "D_{": 9956,
  "D} ": 9957,
  "D}_": 9958,
  "E $": 9959,
  "E \\": 9960,
  "E$ ": 9961,
  "E(\\": 9962,
  "E) ": 9963,
  "ER:": 9964,
  "ET:": 9965,
  "E_2": 9966,
  "E_8": 9967,
  "E} ": 9968,
  "E})": 9969,
  "E}_": 9970,
  "F $": 9971,
  "F \\": 9972,
  "F_A": 9973,
  "F_{": 9974,
  "F} ": 9975,
  "F}(": 9976,
  "F})": 9977,
  "F}_": 9978,
  "G $": 9979,
  "G =": 9980,
  "G \\": 9981,
  "G$ ": 9982,
  "G$,": 9983,
  "G$-": 9984,
  "G$.": 9985,
  "G(\\": 9986,
  "G) ": 9987,
  "G)$": 9988,
  "G)}": 9989,
  "G, ": 9990,
  "GL}": 9991,
  "G\\)": 9992,
  "G_2": 9993,
  "G_{": 9994,
  "Gr}": 9995,
  "G| ": 9996,
  "G|}": 9997,
  "G} ": 9998,
  "G}_": 9999,
  "H $": 10000,
  "H \\": 10001,
  "H$ ": 10002,
  "H) ": 10003,
  "H^*": 10004,
  "H^0": 10005,
  "H^1": 10006,
  "H^2": 10007,
  "H^i": 10008,
  "H^{": 10009,
  "H_1": 10010,
  "H_2": 10011,
  "H} ": 10012,
  "H})": 10013,
  "H}^": 10014,
  "H}_": 10015,
  "I \\": 10016,
  "I a": 10017,
  "I c": 10018,
  "I d": 10019,
  "I h": 10020,
  "I m": 10021,
  "I s": 10022,
  "I t": 10023,
  "I w": 10024,
  "I'l": 10025,
  "IO:": 10026,
  "If ": 10027,
  "In ": 10028,
  "Is ": 10029,
  "It ": 10030,
  "K $": 10031,
  "K =": 10032,
  "K \\": 10033,
  "K$ ": 10034,
  "K) ": 10035,
  "K, ": 10036,
  "K/\\": 10037,
  "KE ": 10038,
  "K\\)": 10039,
  "K^\\": 10040,
  "K_0": 10041,
  "K_X": 10042,
  "K_\\": 10043,
  "K_n": 10044,
  "K_{": 10045,
  "K} ": 10046,
  "L $": 10047,
  "L \\": 10048,
  "L$ ": 10049,
  "L$-": 10050,
  "L(1": 10051,
  "L(2": 10052,
  "L(\\": 10053,
  "L(s": 10054,
  "L) ": 10055,
  "L^2": 10056,
  "L^{": 10057,
  "L_n": 10058,
  "L_p": 10059,
  "L_{": 10060,
  "L} ": 10061,
  "L}(": 10062,
  "L}_": 10063,
  "L}}": 10064,
  "M $": 10065,
  "M =": 10066,
  "M \\": 10067,
  "M$ ": 10068,
  "M) ": 10069,
  "M)$": 10070,
  "M; ": 10071,
  "M_{": 10072,
  "My ": 10073,
  "M} ": 10074,
  "M}(": 10075,
  "M})": 10076,
  "M}_": 10077,
  "M}}": 10078,
  "N $": 10079,
  "N =": 10080,
  "N \\": 10081,
  "N$ ": 10082,
  "N(\\": 10083,
  "N) ": 10084,
  "NG ": 10085,
  "N_{": 10086,
  "No ": 10087,
  "No,": 10088,
  "N} ": 10089,
  "N}_": 10090,
  "O(1": 10091,
  "On ": 10092,
  "Or ": 10093,
  "O} ": 10094,
  "O}(": 10095,
  "O})": 10096,
  "O}_": 10097,
  "P $": 10098,
  "P \\": 10099,
  "P$ ": 10100,
  "P(x": 10101,
  "P) ": 10102,
  "P_n": 10103,
  "P_{": 10104,
  "P} ": 10105,
  "P}(": 10106,
  "P}^": 10107,
  "P}_": 10108,
  "Q} ": 10109,
  "Q}$": 10110,
  "Q}(": 10111,
  "Q})": 10112,
  "Q}_": 10113,
  "Q}}": 10114,
  "RD ": 10115,
  "R} ": 10116,
  "R})": 10117,
  "R}^": 10118,
  "R}_": 10119,
  "S $": 10120,
  "S =": 10121,
  "S \\": 10122,
  "S$ ": 10123,
  "S) ": 10124,
  "S)$": 10125,
  "SL(": 10126,
  "SL}": 10127,
  "S^1": 10128,
  "S^2": 10129,
  "S^{": 10130,
  "S_n": 10131,
  "S_{": 10132,
  "So ": 10133,
  "Sp}": 10134,
  "S| ": 10135,
  "S} ": 10136,
  "S}^": 10137,
  "S}_": 10138,
  "T $": 10139,
  "T -": 10140,
  "T =": 10141,
  "T \\": 10142,
  "T$ ": 10143,
  "T) ": 10144,
  "T^*": 10145,
  "T^2": 10146,
  "T^n": 10147,
  "T^{": 10148,
  "T_\\": 10149,
  "T_{": 10150,
  "To ": 10151,
  "Tr}": 10152,
  "T} ": 10153,
  "T}(": 10154,
  "T}_": 10155,
  "US:": 10156,
  "U}(": 10157,
  "V \\": 10158,
  "V(\\": 10159,
  "V_{": 10160,
  "WP}": 10161,
  "We ": 10162,
  "X $": 10163,
  "X =": 10164,
  "X \\": 10165,
  "X$ ": 10166,
  "X(\\": 10167,
  "X) ": 10168,
  "X)$": 10169,
  "X, ": 10170,
  "X^{": 10171,
  "X_0": 10172,
  "X_\\": 10173,
  "X_{": 10174,
  "X} ": 10175,
  "Y \\": 10176,
  "Y) ": 10177,
  "Z_{": 10178,
  "Z} ": 10179,
  "Z}$": 10180,
  "Z})": 10181,
  "Z}/": 10182,
  "Z}[": 10183,
  "Z}^": 10184,
  "Z}_": 10185,
  "Z}}": 10186,
  "[0,": 10187,
  "[G]": 10188,
  "[\\m": 10189,
  "[\\o": 10190,
  "\\!\\": 10191,
  "\\# ": 10192,
  "\\#\\": 10193,
  "\\( ": 10194,
  "\\((": 10195,
  "\\(G": 10196,
  "\\(K": 10197,
  "\\(S": 10198,
  "\\(\\": 10199,
  "\\(a": 10200,
  "\\(k": 10201,
  "\\(n": 10202,
  "\\(p": 10203,
  "\\) ": 10204,
  "\\))": 10205,
  "\\)*": 10206,
  "\\),": 10207,
  "\\)-": 10208,
  "\\).": 10209,
  "\\):": 10210,
  "\\, ": 10211,
  "\\,d": 10212,
  "\\Bi": 10213,
  "\\De": 10214,
  "\\Ga": 10215,
  "\\La": 10216,
  "\\Om": 10217,
  "\\Ph": 10218,
  "\\Pi": 10219,
  "\\Ri": 10220,
  "\\Si": 10221,
  "\\Th": 10222,
  "\\\\ ": 10223,
  "\\al": 10224,
  "\\ap": 10225,
  "\\as": 10226,
  "\\ba": 10227,
  "\\be": 10228,
  "\\bi": 10229,
  "\\bo": 10230,
  "\\bu": 10231,
  "\\ca": 10232,
  "\\cd": 10233,
  "\\ch": 10234,
  "\\ci": 10235,
  "\\co": 10236,
  "\\cu": 10237,
  "\\de": 10238,
  "\\di": 10239,
  "\\do": 10240,
  "\\el": 10241,
  "\\em": 10242,
  "\\en": 10243,
  "\\ep": 10244,
  "\\eq": 10245,
  "\\et": 10246,
  "\\ex": 10247,
  "\\fr": 10248,
  "\\ga": 10249,
  "\\gc": 10250,
  "\\ge": 10251,
  "\\ha": 10252,
  "\\in": 10253,
  "\\io": 10254,
  "\\it": 10255,
  "\\ka": 10256,
  "\\ke": 10257,
  "\\la": 10258,
  "\\ld": 10259,
  "\\le": 10260,
  "\\lf": 10261,
  "\\li": 10262,
  "\\ln": 10263,
  "\\lo": 10264,
  "\\ma": 10265,
  "\\mi": 10266,
  "\\mu": 10267,
  "\\na": 10268,
  "\\ne": 10269,
  "\\nm": 10270,
  "\\no": 10271,
  "\\nu": 10272,
  "\\om": 10273,
  "\\op": 10274,
  "\\ot": 10275,
  "\\ov": 10276,
  "\\pa": 10277,
  "\\ph": 10278,
  "\\pi": 10279,
  "\\pm": 10280,
  "\\pr": 10281,
  "\\ps": 10282,
  "\\qq": 10283,
  "\\qu": 10284,
  "\\ra": 10285,
  "\\rf": 10286,
  "\\rh": 10287,
  "\\ri": 10288,
  "\\se": 10289,
  "\\si": 10290,
  "\\sq": 10291,
  "\\su": 10292,
  "\\ta": 10293,
  "\\te": 10294,
  "\\tf": 10295,
  "\\th": 10296,
  "\\ti": 10297,
  "\\to": 10298,
  "\\va": 10299,
  "\\ve": 10300,
  "\\we": 10301,
  "\\wi": 10302,
  "\\xi": 10303,
  "\\ze": 10304,
  "\\{ ": 10305,
  "\\{0": 10306,
  "\\{1": 10307,
  "\\{\\": 10308,
  "\\{e": 10309,
  "\\| ": 10310,
  "\\|T": 10311,
  "\\|\\": 10312,
  "\\|^": 10313,
  "\\|_": 10314,
  "\\} ": 10315,
  "\\}$": 10316,
  "\\}.": 10317,
  "\\}_": 10318,
  "] $": 10319,
  "] =": 10320,
  "] \\": 10321,
  "]$ ": 10322,
  "]) ": 10323,
  "]^{": 10324,
  "^* ": 10325,
  "^*(": 10326,
  "^*)": 10327,
  "^+ ": 10328,
  "^+(": 10329,
  "^- ": 10330,
  "^0(": 10331,
  "^1 ": 10332,
  "^1(": 10333,
  "^1_": 10334,
  "^2 ": 10335,
  "^2$": 10336,
  "^2(": 10337,
  "^2)": 10338,
  "^2+": 10339,
  "^2,": 10340,
  "^2-": 10341,
  "^2/": 10342,
  "^2\\": 10343,
  "^2}": 10344,
  "^3 ": 10345,
  "^3$": 10346,
  "^3}": 10347,
  "^4 ": 10348,
  "^\\b": 10349,
  "^\\i": 10350,
  "^\\t": 10351,
  "^\\v": 10352,
  "^a ": 10353,
  "^d ": 10354,
  "^g ": 10355,
  "^i ": 10356,
  "^k ": 10357,
  "^k)": 10358,
  "^k}": 10359,
  "^m ": 10360,
  "^n ": 10361,
  "^n$": 10362,
  "^n)": 10363,
  "^n}": 10364,
  "^p ": 10365,
  "^{(": 10366,
  "^{*": 10367,
  "^{-": 10368,
  "^{1": 10369,
  "^{2": 10370,
  "^{3": 10371,
  "^{6": 10372,
  "^{\\": 10373,
  "^{a": 10374,
  "^{d": 10375,
  "^{g": 10376,
  "^{i": 10377,
  "^{k": 10378,
  "^{m": 10379,
  "^{n": 10380,
  "^{p": 10381,
  "^{r": 10382,
  "_* ": 10383,
  "_0 ": 10384,
  "_0$": 10385,
  "_0(": 10386,
  "_0)": 10387,
  "_0^": 10388,
  "_0}": 10389,
  "_1 ": 10390,
  "_1$": 10391,
  "_1(": 10392,
  "_1)": 10393,
  "_1,": 10394,
  "_1^": 10395,
  "_1}": 10396,
  "_2 ": 10397,
  "_2$": 10398,
  "_2(": 10399,
  "_2)": 10400,
  "_2,": 10401,
  "_2^": 10402,
  "_2}": 10403,
  "_3 ": 10404,
  "_3(": 10405,
  "_3)": 10406,
  "_4 ": 10407,
  "_4(": 10408,
  "_5 ": 10409,
  "_5$": 10410,
  "_8 ": 10411,
  "_G ": 10412,
  "_G(": 10413,
  "_K ": 10414,
  "_K$": 10415,
  "_K(": 10416,
  "_K)": 10417,
  "_K^": 10418,
  "_K|": 10419,
  "_M ": 10420,
  "_S ": 10421,
  "_X ": 10422,
  "_X(": 10423,
  "_X)": 10424,
  "_X^": 10425,
  "_\\a": 10426,
  "_\\c": 10427,
  "_\\e": 10428,
  "_\\g": 10429,
  "_\\i": 10430,
  "_\\l": 10431,
  "_\\m": 10432,
  "_\\p": 10433,
  "_\\r": 10434,
  "_d ": 10435,
  "_g ": 10436,
  "_g$": 10437,
  "_g(": 10438,
  "_g)": 10439,
  "_g^": 10440,
  "_g}": 10441,
  "_i ": 10442,
  "_i$": 10443,
  "_i(": 10444,
  "_i)": 10445,
  "_i,": 10446,
  "_i\\": 10447,
  "_i^": 10448,
  "_i}": 10449,
  "_j ": 10450,
  "_j)": 10451,
  "_k ": 10452,
  "_k$": 10453,
  "_k(": 10454,
  "_k)": 10455,
  "_k\\": 10456,
  "_k^": 10457,
  "_k}": 10458,
  "_m ": 10459,
  "_n ": 10460,
  "_n$": 10461,
  "_n(": 10462,
  "_n)": 10463,
  "_n,": 10464,
  "_n\\": 10465,
  "_n^": 10466,
  "_n|": 10467,
  "_n}": 10468,
  "_p ": 10469,
  "_p$": 10470,
  "_p(": 10471,
  "_p)": 10472,
  "_p[": 10473,
  "_p^": 10474,
  "_p}": 10475,
  "_q ": 10476,
  "_q(": 10477,
  "_v ": 10478,
  "_w ": 10479,
  "_x ": 10480,
  "_{(": 10481,
  "_{0": 10482,
  "_{1": 10483,
  "_{2": 10484,
  "_{3": 10485,
  "_{G": 10486,
  "_{K": 10487,
  "_{L": 10488,
  "_{N": 10489,
  "_{S": 10490,
  "_{W": 10491,
  "_{X": 10492,
  "_{\\": 10493,
  "_{a": 10494,
  "_{d": 10495,
  "_{g": 10496,
  "_{i": 10497,
  "_{j": 10498,
  "_{k": 10499,
  "_{m": 10500,
  "_{n": 10501,
  "_{p": 10502,
  "_{q": 10503,
  "_{s": 10504,
  "_{t": 10505,
  "_{w": 10506,
  "_{x": 10507,
  "a $": 10508,
  "a '": 10509,
  "a +": 10510,
  "a -": 10511,
  "a =": 10512,
  "a >": 10513,
  "a C": 10514,
  "a S": 10515,
  "a \\": 10516,
  "a a": 10517,
  "a b": 10518,
  "a c": 10519,
  "a d": 10520,
  "a f": 10521,
  "a g": 10522,
  "a h": 10523,
  "a i": 10524,
  "a k": 10525,
  "a l": 10526,
  "a m": 10527,
  "a n": 10528,
  "a o": 10529,
  "a p": 10530,
  "a q": 10531,
  "a r": 10532,
  "a s": 10533,
  "a t": 10534,
  "a u": 10535,
  "a v": 10536,
  "a w": 10537,
  "a$ ": 10538,
  "a$,": 10539,
  "a$.": 10540,
  "a(G": 10541,
  "a(M": 10542,
  "a(T": 10543,
  "a(\\": 10544,
  "a(s": 10545,
  "a) ": 10546,
  "a)$": 10547,
  "a))": 10548,
  "a)^": 10549,
  "a)}": 10550,
  "a, ": 10551,
  "a,\\": 10552,
  "a,b": 10553,
  "a. ": 10554,
  "a: ": 10555,
  "a\\)": 10556,
  "a] ": 10557,
  "a^*": 10558,
  "a^2": 10559,
  "a^{": 10560,
  "a_0": 10561,
  "a_1": 10562,
  "a_2": 10563,
  "a_3": 10564,
  "a_K": 10565,
  "a_X": 10566,
  "a_\\": 10567,
  "a_g": 10568,
  "a_i": 10569,
  "a_j": 10570,
  "a_k": 10571,
  "a_n": 10572,
  "a_p": 10573,
  "a_{": 10574,
  "ac ": 10575,
  "ac1": 10576,
  "ac{": 10577,
  "ad ": 10578,
  "ad,": 10579,
  "af ": 10580,
  "ag{": 10581,
  "ak ": 10582,
  "ak{": 10583,
  "al ": 10584,
  "al,": 10585,
  "al.": 10586,
  "al\\": 10587,
  "al{": 10588,
  "al}": 10589,
  "am ": 10590,
  "an ": 10591,
  "an,": 10592,
  "an-": 10593,
  "an.": 10594,
  "an}": 10595,
  "ap ": 10596,
  "ap.": 10597,
  "ar ": 10598,
  "ar,": 10599,
  "ar.": 10600,
  "ar{": 10601,
  "ar}": 10602,
  "as ": 10603,
  "at ": 10604,
  "at'": 10605,
  "at,": 10606,
  "at:": 10607,
  "at{": 10608,
  "au ": 10609,
  "au(": 10610,
  "au)": 10611,
  "au_": 10612,
  "aw ": 10613,
  "ay ": 10614,
  "ay,": 10615,
  "ay.": 10616,
  "a} ": 10617,
  "a}$": 10618,
  "a}(": 10619,
  "a})": 10620,
  "a}_": 10621,
  "a}{": 10622,
  "b =": 10623,
  "b \\": 10624,
  "b) ": 10625,
  "b, ": 10626,
  "b,c": 10627,
  "b^2": 10628,
  "b_1": 10629,
  "b_2": 10630,
  "b_n": 10631,
  "b_{": 10632,
  "bb ": 10633,
  "bb{": 10634,
  "be ": 10635,
  "bf{": 10636,
  "bi-": 10637,
  "by ": 10638,
  "b{C": 10639,
  "b{D": 10640,
  "b{E": 10641,
  "b{F": 10642,
  "b{N": 10643,
  "b{P": 10644,
  "b{Q": 10645,
  "b{R": 10646,
  "b{S": 10647,
  "b{T": 10648,
  "b{Z": 10649,
  "b} ": 10650,
  "b}_": 10651,
  "c $": 10652,
  "c =": 10653,
  "c S": 10654,
  "c \\": 10655,
  "c a": 10656,
  "c b": 10657,
  "c c": 10658,
  "c d": 10659,
  "c e": 10660,
  "c f": 10661,
  "c g": 10662,
  "c h": 10663,
  "c i": 10664,
  "c l": 10665,
  "c m": 10666,
  "c n": 10667,
  "c o": 10668,
  "c p": 10669,
  "c r": 10670,
  "c s": 10671,
  "c t": 10672,
  "c v": 10673,
  "c w": 10674,
  "c$ ": 10675,
  "c) ": 10676,
  "c, ": 10677,
  "c. ": 10678,
  "c12": 10679,
  "c^2": 10680,
  "c_1": 10681,
  "c_2": 10682,
  "c_n": 10683,
  "c_{": 10684,
  "cd(": 10685,
  "ce ": 10686,
  "ce,": 10687,
  "ce-": 10688,
  "ce.": 10689,
  "ce:": 10690,
  "ch ": 10691,
  "ch.": 10692,
  "ch}": 10693,
  "ck ": 10694,
  "cr{": 10695,
  "cs ": 10696,
  "cs.": 10697,
  "ct ": 10698,
  "ct,": 10699,
  "ct.": 10700,
  "cy ": 10701,
  "c{(": 10702,
  "c{1": 10703,
  "c{2": 10704,
  "c{3": 10705,
  "c{4": 10706,
  "c{L": 10707,
  "c{\\": 10708,
  "c{a": 10709,
  "c{c": 10710,
  "c{d": 10711,
  "c{k": 10712,
  "c{n": 10713,
  "c{p": 10714,
  "c{q": 10715,
  "c{x": 10716,
  "c{|": 10717,
  "c} ": 10718,
  "c}(": 10719,
  "d $": 10720,
  "d (": 10721,
  "d 1": 10722,
  "d 2": 10723,
  "d =": 10724,
  "d B": 10725,
  "d C": 10726,
  "d G": 10727,
  "d H": 10728,
  "d I": 10729,
  "d L": 10730,
  "d M": 10731,
  "d N": 10732,
  "d P": 10733,
  "d S": 10734,
  "d \\": 10735,
  "d a": 10736,
  "d b": 10737,
  "d c": 10738,
  "d d": 10739,
  "d e": 10740,
  "d f": 10741,
  "d g": 10742,
  "d h": 10743,
  "d i": 10744,
  "d k": 10745,
  "d l": 10746,
  "d m": 10747,
  "d n": 10748,
  "d o": 10749,
  "d p": 10750,
  "d r": 10751,
  "d s": 10752,
  "d t": 10753,
  "d u": 10754,
  "d v": 10755,
  "d w": 10756,
  "d y": 10757,
  "d$ ": 10758,
  "d's": 10759,
  "d) ": 10760,
  "d, ": 10761,
  "d-1": 10762,
  "d-p": 10763,
  "d. ": 10764,
  "d: ": 10765,
  "d\\m": 10766,
  "d\\t": 10767,
  "d_i": 10768,
  "d_{": 10769,
  "da ": 10770,
  "da$": 10771,
  "da(": 10772,
  "da)": 10773,
  "da,": 10774,
  "da^": 10775,
  "da_": 10776,
  "da}": 10777,
  "dd ": 10778,
  "dd,": 10779,
  "dd.": 10780,
  "de ": 10781,
  "de{": 10782,
  "do ": 10783,
  "ds ": 10784,
  "ds,": 10785,
  "ds.": 10786,
  "dt ": 10787,
  "dy ": 10788,
  "d{1": 10789,
  "d{2": 10790,
  "d{3": 10791,
  "d{4": 10792,
  "d{\\": 10793,
  "d{p": 10794,
  "d} ": 10795,
  "d}(": 10796,
  "d}_": 10797,
  "d}{": 10798,
  "e  ": 10799,
  "e \"": 10800,
  "e $": 10801,
  "e (": 10802,
  "e *": 10803,
  "e 0": 10804,
  "e 1": 10805,
  "e 2": 10806,
  "e 3": 10807,
  "e =": 10808,
  "e A": 10809,
  "e B": 10810,
  "e C": 10811,
  "e D": 10812,
  "e E": 10813,
  "e F": 10814,
  "e G": 10815,
  "e H": 10816,
  "e I": 10817,
  "e J": 10818,
  "e K": 10819,
  "e L": 10820,
  "e M": 10821,
  "e N": 10822,
  "e P": 10823,
  "e R": 10824,
  "e S": 10825,
  "e T": 10826,
  "e W": 10827,
  "e \\": 10828,
  "e a": 10829,
  "e b": 10830,
  "e c": 10831,
  "e d": 10832,
  "e e": 10833,
  "e f": 10834,
  "e g": 10835,
  "e h": 10836,
  "e i": 10837,
  "e k": 10838,
  "e l": 10839,
  "e m": 10840,
  "e n": 10841,
  "e o": 10842,
  "e p": 10843,
  "e q": 10844,
  "e r": 10845,
  "e s": 10846,
  "e t": 10847,
  "e u": 10848,
  "e v": 10849,
  "e w": 10850,
  "e x": 10851,
  "e y": 10852,
  "e z": 10853,
  "e }": 10854,
  "e's": 10855,
  "e) ": 10856,
  "e),": 10857,
  "e).": 10858,
  "e**": 10859,
  "e, ": 10860,
  "e-c": 10861,
  "e-d": 10862,
  "e-e": 10863,
  "e-f": 10864,
  "e. ": 10865,
  "e.*": 10866,
  "e.,": 10867,
  "e: ": 10868,
  "e; ": 10869,
  "e^{": 10870,
  "e_1": 10871,
  "e_n": 10872,
  "e_{": 10873,
  "ea ": 10874,
  "ed ": 10875,
  "ed,": 10876,
  "ed-": 10877,
  "ed.": 10878,
  "ed:": 10879,
  "ed{": 10880,
  "ee ": 10881,
  "ee,": 10882,
  "ee.": 10883,
  "eg}": 10884,
  "el ": 10885,
  "em ": 10886,
  "em,": 10887,
  "em.": 10888,
  "em:": 10889,
  "en ": 10890,
  "en,": 10891,
  "en.": 10892,
  "en:": 10893,
  "ep ": 10894,
  "eq ": 10895,
  "er ": 10896,
  "er'": 10897,
  "er,": 10898,
  "er-": 10899,
  "er.": 10900,
  "er:": 10901,
  "es ": 10902,
  "es)": 10903,
  "es*": 10904,
  "es,": 10905,
  "es.": 10906,
  "es:": 10907,
  "es_": 10908,
  "es}": 10909,
  "et ": 10910,
  "et'": 10911,
  "et(": 10912,
  "et,": 10913,
  "et.": 10914,
  "et:": 10915,
  "et}": 10916,
  "ev ": 10917,
  "ew ": 10918,
  "ex ": 10919,
  "ey ": 10920,
  "e{A": 10921,
  "e{C": 10922,
  "e{G": 10923,
  "e{H": 10924,
  "e{I": 10925,
  "e{K": 10926,
  "e{M": 10927,
  "e{P": 10928,
  "e{R": 10929,
  "e{S": 10930,
  "e{T": 10931,
  "e{\\": 10932,
  "e{c": 10933,
  "e{o": 10934,
  "e{r": 10935,
  "e{s": 10936,
  "e} ": 10937,
  "f $": 10938,
  "f =": 10939,
  "f B": 10940,
  "f C": 10941,
  "f F": 10942,
  "f G": 10943,
  "f H": 10944,
  "f L": 10945,
  "f M": 10946,
  "f P": 10947,
  "f S": 10948,
  "f T": 10949,
  "f \\": 10950,
  "f a": 10951,
  "f b": 10952,
  "f c": 10953,
  "f d": 10954,
  "f e": 10955,
  "f f": 10956,
  "f g": 10957,
  "f h": 10958,
  "f i": 10959,
  "f l": 10960,
  "f m": 10961,
  "f n": 10962,
  "f o": 10963,
  "f p": 10964,
  "f r": 10965,
  "f s": 10966,
  "f t": 10967,
  "f u": 10968,
  "f v": 10969,
  "f w": 10970,
  "f y": 10971,
  "f }": 10972,
  "f$ ": 10973,
  "f(G": 10974,
  "f(\\": 10975,
  "f(n": 10976,
  "f(p": 10977,
  "f(x": 10978,
  "f) ": 10979,
  "f, ": 10980,
  "f-a": 10981,
  "f: ": 10982,
  "f^{": 10983,
  "f_{": 10984,
  "ff ": 10985,
  "ft ": 10986,
  "ft(": 10987,
  "ft\\": 10988,
  "fy ": 10989,
  "f{S": 10990,
  "g $": 10991,
  "g (": 10992,
  "g -": 10993,
  "g 2": 10994,
  "g =": 10995,
  "g C": 10996,
  "g H": 10997,
  "g N": 10998,
  "g S": 10999,
  "g \\": 11000,
  "g a": 11001,
  "g b": 11002,
  "g c": 11003,
  "g d": 11004,
  "g e": 11005,
  "g f": 11006,
  "g g": 11007,
  "g h": 11008,
  "g i": 11009,
  "g l": 11010,
  "g m": 11011,
  "g n": 11012,
  "g o": 11013,
  "g p": 11014,
  "g r": 11015,
  "g s": 11016,
  "g t": 11017,
  "g v": 11018,
  "g w": 11019,
  "g x": 11020,
  "g |": 11021,
  "g$ ": 11022,
  "g$.": 11023,
  "g(\\": 11024,
  "g) ": 11025,
  "g)$": 11026,
  "g+1": 11027,
  "g, ": 11028,
  "g,n": 11029,
  "g-1": 11030,
  "g-2": 11031,
  "g-3": 11032,
  "g-W": 11033,
  "g. ": 11034,
  "g\\l": 11035,
  "g^{": 11036,
  "g_2": 11037,
  "g_{": 11038,
  "ga ": 11039,
  "ga$": 11040,
  "ga(": 11041,
  "ga)": 11042,
  "ga^": 11043,
  "ga_": 11044,
  "ge ": 11045,
  "ge,": 11046,
  "ge.": 11047,
  "gh ": 11048,
  "gl(": 11049,
  "gn ": 11050,
  "go ": 11051,
  "gr)": 11052,
  "gs ": 11053,
  "gy ": 11054,
  "gy.": 11055,
  "g} ": 11056,
  "g}$": 11057,
  "g}(": 11058,
  "g})": 11059,
  "g}}": 11060,
  "h $": 11061,
  "h \\": 11062,
  "h a": 11063,
  "h b": 11064,
  "h c": 11065,
  "h d": 11066,
  "h e": 11067,
  "h f": 11068,
  "h g": 11069,
  "h h": 11070,
  "h i": 11071,
  "h l": 11072,
  "h m": 11073,
  "h n": 11074,
  "h o": 11075,
  "h p": 11076,
  "h r": 11077,
  "h s": 11078,
  "h t": 11079,
  "h v": 11080,
  "h w": 11081,
  "h) ": 11082,
  "h, ": 11083,
  "h. ": 11084,
  "h^{": 11085,
  "h_K": 11086,
  "h_{": 11087,
  "ha ": 11088,
  "ha$": 11089,
  "ha(": 11090,
  "ha)": 11091,
  "ha,": 11092,
  "ha\\": 11093,
  "ha^": 11094,
  "ha_": 11095,
  "ha}": 11096,
  "he ": 11097,
  "hi ": 11098,
  "hi$": 11099,
  "hi(": 11100,
  "hi)": 11101,
  "hi,": 11102,
  "hi:": 11103,
  "hi\\": 11104,
  "hi^": 11105,
  "hi_": 11106,
  "hi}": 11107,
  "ho ": 11108,
  "ho$": 11109,
  "ho(": 11110,
  "ho)": 11111,
  "ho,": 11112,
  "ho^": 11113,
  "ho_": 11114,
  "ho}": 11115,
  "hs ": 11116,
  "ht ": 11117,
  "ht)": 11118,
  "ht.": 11119,
  "ht\\": 11120,
  "hy ": 11121,
  "h}(": 11122,
  "i $": 11123,
  "i +": 11124,
  "i =": 11125,
  "i \\": 11126,
  "i i": 11127,
  "i n": 11128,
  "i s": 11129,
  "i t": 11130,
  "i$ ": 11131,
  "i$.": 11132,
  "i(1": 11133,
  "i(M": 11134,
  "i(T": 11135,
  "i(X": 11136,
  "i(\\": 11137,
  "i(g": 11138,
  "i(x": 11139,
  "i) ": 11140,
  "i)$": 11141,
  "i)^": 11142,
  "i)}": 11143,
  "i+1": 11144,
  "i, ": 11145,
  "i,j": 11146,
  "i-Y": 11147,
  "i.e": 11148,
  "i: ": 11149,
  "i=0": 11150,
  "i=1": 11151,
  "i^*": 11152,
  "i^2": 11153,
  "i^{": 11154,
  "i_0": 11155,
  "i_1": 11156,
  "i_\\": 11157,
  "i_i": 11158,
  "i_k": 11159,
  "i_p": 11160,
  "i_{": 11161,
  "ia ": 11162,
  "ic ": 11163,
  "ic,": 11164,
  "ic.": 11165,
  "ic}": 11166,
  "id ": 11167,
  "ie ": 11168,
  "if ": 11169,
  "ig ": 11170,
  "ij}": 11171,
  "il ": 11172,
  "il-": 11173,
  "im ": 11174,
  "im_": 11175,
  "im}": 11176,
  "in ": 11177,
  "in(": 11178,
  "in,": 11179,
  "in.": 11180,
  "in\\": 11181,
  "in{": 11182,
  "in}": 11183,
  "io ": 11184,
  "ir ": 11185,
  "ir,": 11186,
  "is ": 11187,
  "is,": 11188,
  "is.": 11189,
  "is:": 11190,
  "it ": 11191,
  "it'": 11192,
  "it,": 11193,
  "it.": 11194,
  "iv ": 11195,
  "ix ": 11196,
  "ix}": 11197,
  "i} ": 11198,
  "i}(": 11199,
  "i})": 11200,
  "i}{": 11201,
  "j \\": 11202,
  "j=1": 11203,
  "j} ": 11204,
  "k $": 11205,
  "k +": 11206,
  "k -": 11207,
  "k =": 11208,
  "k \\": 11209,
  "k a": 11210,
  "k f": 11211,
  "k i": 11212,
  "k m": 11213,
  "k o": 11214,
  "k p": 11215,
  "k s": 11216,
  "k t": 11217,
  "k$ ": 11218,
  "k$,": 11219,
  "k$.": 11220,
  "k(\\": 11221,
  "k) ": 11222,
  "k)$": 11223,
  "k)}": 11224,
  "k+1": 11225,
  "k, ": 11226,
  "k-1": 11227,
  "k=0": 11228,
  "k=1": 11229,
  "k\\)": 11230,
  "k^2": 11231,
  "k^{": 11232,
  "ke ": 11233,
  "ks ": 11234,
  "k{a": 11235,
  "k{g": 11236,
  "k{h": 11237,
  "k{m": 11238,
  "k{p": 11239,
  "k{s": 11240,
  "k} ": 11241,
  "k}$": 11242,
  "k}(": 11243,
  "k})": 11244,
  "k}\\": 11245,
  "k}{": 11246,
  "k}}": 11247,
  "l $": 11248,
  "l (": 11249,
  "l A": 11250,
  "l C": 11251,
  "l S": 11252,
  "l \\": 11253,
  "l a": 11254,
  "l b": 11255,
  "l c": 11256,
  "l d": 11257,
  "l e": 11258,
  "l f": 11259,
  "l g": 11260,
  "l h": 11261,
  "l i": 11262,
  "l l": 11263,
  "l m": 11264,
  "l n": 11265,
  "l o": 11266,
  "l p": 11267,
  "l q": 11268,
  "l r": 11269,
  "l s": 11270,
  "l t": 11271,
  "l u": 11272,
  "l v": 11273,
  "l w": 11274,
  "l(\\": 11275,
  "l(w": 11276,
  "l) ": 11277,
  "l, ": 11278,
  "l-P": 11279,
  "l-d": 11280,
  "l. ": 11281,
  "l_\\": 11282,
  "l_{": 11283,
  "la ": 11284,
  "la.": 11285,
  "ld ": 11286,
  "ld,": 11287,
  "ld.": 11288,
  "le ": 11289,
  "le,": 11290,
  "le.": 11291,
  "le\\": 11292,
  "lf ": 11293,
  "lf-": 11294,
  "li ": 11295,
  "ll ": 11296,
  "ll(": 11297,
  "ll)": 11298,
  "ll,": 11299,
  "ll-": 11300,
  "ll.": 11301,
  "ll^": 11302,
  "ll_": 11303,
  "ll}": 11304,
  "lo ": 11305,
  "ls ": 11306,
  "ls.": 11307,
  "lt ": 11308,
  "ly ": 11309,
  "ly,": 11310,
  "ly.": 11311,
  "ly:": 11312,
  "l{A": 11313,
  "l{B": 11314,
  "l{C": 11315,
  "l{D": 11316,
  "l{E": 11317,
  "l{F": 11318,
  "l{G": 11319,
  "l{H": 11320,
  "l{J": 11321,
  "l{K": 11322,
  "l{L": 11323,
  "l{M": 11324,
  "l{N": 11325,
  "l{O": 11326,
  "l{P": 11327,
  "l{Q": 11328,
  "l{R": 11329,
  "l{S": 11330,
  "l{T": 11331,
  "l{U": 11332,
  "l{X": 11333,
  "l} ": 11334,
  "l}(": 11335,
  "l}_": 11336,
  "m $": 11337,
  "m (": 11338,
  "m 1": 11339,
  "m =": 11340,
  "m C": 11341,
  "m H": 11342,
  "m S": 11343,
  "m \\": 11344,
  "m a": 11345,
  "m b": 11346,
  "m c": 11347,
  "m d": 11348,
  "m e": 11349,
  "m f": 11350,
  "m g": 11351,
  "m h": 11352,
  "m i": 11353,
  "m m": 11354,
  "m n": 11355,
  "m o": 11356,
  "m p": 11357,
  "m r": 11358,
  "m s": 11359,
  "m t": 11360,
  "m v": 11361,
  "m w": 11362,
  "m$ ": 11363,
  "m) ": 11364,
  "m**": 11365,
  "m+1": 11366,
  "m, ": 11367,
  "m,n": 11368,
  "m-1": 11369,
  "m. ": 11370,
  "m.*": 11371,
  "m: ": 11372,
  "m^2": 11373,
  "m_\\": 11374,
  "m_{": 11375,
  "ma ": 11376,
  "ma$": 11377,
  "ma(": 11378,
  "ma)": 11379,
  "ma,": 11380,
  "ma^": 11381,
  "ma_": 11382,
  "ma}": 11383,
  "me ": 11384,
  "me,": 11385,
  "me.": 11386,
  "me{": 11387,
  "ms ": 11388,
  "ms,": 11389,
  "ms.": 11390,
  "mu ": 11391,
  "mu$": 11392,
  "mu(": 11393,
  "mu)": 11394,
  "mu_": 11395,
  "mu}": 11396,
  "my ": 11397,
  "m{2": 11398,
  "m{A": 11399,
  "m{G": 11400,
  "m{P": 11401,
  "m{R": 11402,
  "m{S": 11403,
  "m{n": 11404,
  "m} ": 11405,
  "m}(": 11406,
  "m}^": 11407,
  "m}_": 11408,
  "m}}": 11409,
  "n  ": 11410,
  "n $": 11411,
  "n (": 11412,
  "n +": 11413,
  "n -": 11414,
  "n 1": 11415,
  "n 2": 11416,
  "n =": 11417,
  "n >": 11418,
  "n A": 11419,
  "n C": 11420,
  "n E": 11421,
  "n F": 11422,
  "n G": 11423,
  "n H": 11424,
  "n I": 11425,
  "n K": 11426,
  "n L": 11427,
  "n R": 11428,
  "n S": 11429,
  "n T": 11430,
  "n W": 11431,
  "n X": 11432,
  "n [": 11433,
  "n \\": 11434,
  "n a": 11435,
  "n b": 11436,
  "n c": 11437,
  "n d": 11438,
  "n e": 11439,
  "n f": 11440,
  "n g": 11441,
  "n h": 11442,
  "n i": 11443,
  "n l": 11444,
  "n m": 11445,
  "n n": 11446,
  "n o": 11447,
  "n p": 11448,
  "n r": 11449,
  "n s": 11450,
  "n t": 11451,
  "n u": 11452,
  "n v": 11453,
  "n w": 11454,
  "n y": 11455,
  "n }": 11456,
  "n!}": 11457,
  "n$ ": 11458,
  "n$,": 11459,
  "n$.": 11460,
  "n's": 11461,
  "n't": 11462,
  "n(\\": 11463,
  "n(n": 11464,
  "n(x": 11465,
  "n) ": 11466,
  "n)$": 11467,
  "n).": 11468,
  "n)}": 11469,
  "n**": 11470,
  "n+1": 11471,
  "n+2": 11472,
  "n, ": 11473,
  "n-1": 11474,
  "n-2": 11475,
  "n-L": 11476,
  "n-a": 11477,
  "n-d": 11478,
  "n-e": 11479,
  "n-i": 11480,
  "n-t": 11481,
  "n-z": 11482,
  "n. ": 11483,
  "n.*": 11484,
  "n.}": 11485,
  "n/2": 11486,
  "n: ": 11487,
  "n=0": 11488,
  "n=1": 11489,
  "n\\)": 11490,
  "n\\m": 11491,
  "n\\}": 11492,
  "n^2": 11493,
  "n^{": 11494,
  "n_k": 11495,
  "n_{": 11496,
  "nd ": 11497,
  "nd,": 11498,
  "nd.": 11499,
  "nd{": 11500,
  "nd}": 11501,
  "ne ": 11502,
  "ne,": 11503,
  "ne-": 11504,
  "ne.": 11505,
  "ne{": 11506,
  "ng ": 11507,
  "ng,": 11508,
  "ng.": 11509,
  "ng:": 11510,
  "nk ": 11511,
  "nk}": 11512,
  "nn ": 11513,
  "no ": 11514,
  "no.": 11515,
  "ns ": 11516,
  "ns*": 11517,
  "ns,": 11518,
  "ns.": 11519,
  "ns:": 11520,
  "nt ": 11521,
  "nt,": 11522,
  "nt.": 11523,
  "nt:": 11524,
  "nt_": 11525,
  "nu ": 11526,
  "nu_": 11527,
  "ny ": 11528,
  "n{p": 11529,
  "n} ": 11530,
  "n}$": 11531,
  "n}(": 11532,
  "n})": 11533,
  "n}\\": 11534,
  "n}{": 11535,
  "n}}": 11536,
  "o $": 11537,
  "o 0": 11538,
  "o 1": 11539,
  "o H": 11540,
  "o L": 11541,
  "o S": 11542,
  "o \\": 11543,
  "o a": 11544,
  "o b": 11545,
  "o c": 11546,
  "o d": 11547,
  "o e": 11548,
  "o f": 11549,
  "o g": 11550,
  "o h": 11551,
  "o i": 11552,
  "o l": 11553,
  "o m": 11554,
  "o n": 11555,
  "o o": 11556,
  "o p": 11557,
  "o r": 11558,
  "o s": 11559,
  "o t": 11560,
  "o u": 11561,
  "o v": 11562,
  "o w": 11563,
  "o y": 11564,
  "o(1": 11565,
  "o(g": 11566,
  "o) ": 11567,
  "o, ": 11568,
  "o. ": 11569,
  "o: ": 11570,
  "o\\i": 11571,
  "od ": 11572,
  "od_": 11573,
  "od{": 11574,
  "of ": 11575,
  "of.": 11576,
  "og ": 11577,
  "og(": 11578,
  "og\\": 11579,
  "og_": 11580,
  "ok ": 11581,
  "ol ": 11582,
  "ol{": 11583,
  "ol}": 11584,
  "om ": 11585,
  "om{": 11586,
  "om}": 11587,
  "on ": 11588,
  "on'": 11589,
  "on)": 11590,
  "on*": 11591,
  "on,": 11592,
  "on-": 11593,
  "on.": 11594,
  "on:": 11595,
  "on_": 11596,
  "on}": 11597,
  "oo ": 11598,
  "or ": 11599,
  "or,": 11600,
  "or.": 11601,
  "os ": 11602,
  "ot ": 11603,
  "ot,": 11604,
  "ot.": 11605,
  "ot\\": 11606,
  "ou ": 11607,
  "ou,": 11608,
  "ov ": 11609,
  "ov-": 11610,
  "ow ": 11611,
  "ow,": 11612,
  "ox ": 11613,
  "p $": 11614,
  "p +": 11615,
  "p -": 11616,
  "p 1": 11617,
  "p 2": 11618,
  "p 3": 11619,
  "p 4": 11620,
  "p 5": 11621,
  "p 6": 11622,
  "p 7": 11623,
  "p 8": 11624,
  "p 9": 11625,
  "p =": 11626,
  "p \\": 11627,
  "p a": 11628,
  "p c": 11629,
  "p f": 11630,
  "p i": 11631,
  "p o": 11632,
  "p r": 11633,
  "p s": 11634,
  "p t": 11635,
  "p w": 11636,
  "p$ ": 11637,
  "p$,": 11638,
  "p$-": 11639,
  "p$.": 11640,
  "p(E": 11641,
  "p(\\": 11642,
  "p(s": 11643,
  "p) ": 11644,
  "p)$": 11645,
  "p)}": 11646,
  "p+1": 11647,
  "p, ": 11648,
  "p-1": 11649,
  "p. ": 11650,
  "p\\)": 11651,
  "p\\l": 11652,
  "p\\m": 11653,
  "p^2": 11654,
  "p^3": 11655,
  "p^\\": 11656,
  "p^k": 11657,
  "p^n": 11658,
  "p^{": 11659,
  "p_1": 11660,
  "p_i": 11661,
  "p_n": 11662,
  "p_{": 11663,
  "pa ": 11664,
  "pa(": 11665,
  "pa_": 11666,
  "pe ": 11667,
  "ph ": 11668,
  "pi ": 11669,
  "pi(": 11670,
  "pi)": 11671,
  "pi/": 11672,
  "pi^": 11673,
  "pi_": 11674,
  "pi}": 11675,
  "pm ": 11676,
  "ps ": 11677,
  "ps,": 11678,
  "ps.": 11679,
  "pt ": 11680,
  "py ": 11681,
  "p} ": 11682,
  "p}$": 11683,
  "p}(": 11684,
  "p})": 11685,
  "p}\\": 11686,
  "p}_": 11687,
  "p}{": 11688,
  "p}}": 11689,
  "q $": 11690,
  "q 0": 11691,
  "q 1": 11692,
  "q 2": 11693,
  "q 3": 11694,
  "q 4": 11695,
  "q =": 11696,
  "q C": 11697,
  "q \\": 11698,
  "q n": 11699,
  "q$ ": 11700,
  "q) ": 11701,
  "q)$": 11702,
  "q-1": 11703,
  "q^2": 11704,
  "q^{": 11705,
  "q} ": 11706,
  "r $": 11707,
  "r (": 11708,
  "r 1": 11709,
  "r 2": 11710,
  "r =": 11711,
  "r C": 11712,
  "r S": 11713,
  "r \\": 11714,
  "r a": 11715,
  "r b": 11716,
  "r c": 11717,
  "r d": 11718,
  "r e": 11719,
  "r f": 11720,
  "r g": 11721,
  "r h": 11722,
  "r i": 11723,
  "r k": 11724,
  "r l": 11725,
  "r m": 11726,
  "r n": 11727,
  "r o": 11728,
  "r p": 11729,
  "r r": 11730,
  "r s": 11731,
  "r t": 11732,
  "r u": 11733,
  "r v": 11734,
  "r w": 11735,
  "r }": 11736,
  "r'd": 11737,
  "r's": 11738,
  "r) ": 11739,
  "r).": 11740,
  "r, ": 11741,
  "r. ": 11742,
  "r: ": 11743,
  "r^2": 11744,
  "r_1": 11745,
  "r_2": 11746,
  "r_{": 11747,
  "ra ": 11748,
  "ra.": 11749,
  "rc ": 11750,
  "rd ": 11751,
  "rd,": 11752,
  "rd}": 11753,
  "re ": 11754,
  "re'": 11755,
  "re,": 11756,
  "re-": 11757,
  "re.": 11758,
  "re:": 11759,
  "rg ": 11760,
  "rg-": 11761,
  "rk ": 11762,
  "rm ": 11763,
  "rm,": 11764,
  "rm.": 11765,
  "rm{": 11766,
  "rn ": 11767,
  "ro ": 11768,
  "ro,": 11769,
  "ro.": 11770,
  "rp ": 11771,
  "rr}": 11772,
  "rs ": 11773,
  "rs,": 11774,
  "rs.": 11775,
  "rt ": 11776,
  "rt.": 11777,
  "rt{": 11778,
  "ry ": 11779,
  "ry,": 11780,
  "ry.": 11781,
  "r} ": 11782,
  "r}(": 11783,
  "r}_": 11784,
  "r}}": 11785,
  "s  ": 11786,
  "s \"": 11787,
  "s $": 11788,
  "s (": 11789,
  "s *": 11790,
  "s +": 11791,
  "s 0": 11792,
  "s 1": 11793,
  "s 2": 11794,
  "s 3": 11795,
  "s =": 11796,
  "s C": 11797,
  "s E": 11798,
  "s G": 11799,
  "s H": 11800,
  "s I": 11801,
  "s K": 11802,
  "s L": 11803,
  "s S": 11804,
  "s \\": 11805,
  "s a": 11806,
  "s b": 11807,
  "s c": 11808,
  "s d": 11809,
  "s e": 11810,
  "s f": 11811,
  "s g": 11812,
  "s h": 11813,
  "s i": 11814,
  "s k": 11815,
  "s l": 11816,
  "s m": 11817,
  "s n": 11818,
  "s o": 11819,
  "s p": 11820,
  "s q": 11821,
  "s r": 11822,
  "s s": 11823,
  "s t": 11824,
  "s u": 11825,
  "s v": 11826,
  "s w": 11827,
  "s y": 11828,
  "s z": 11829,
  "s }": 11830,
  "s) ": 11831,
  "s)$": 11832,
  "s),": 11833,
  "s).": 11834,
  "s**": 11835,
  "s, ": 11836,
  "s,\\": 11837,
  "s-1": 11838,
  "s. ": 11839,
  "s.*": 11840,
  "s.}": 11841,
  "s: ": 11842,
  "s; ": 11843,
  "s=1": 11844,
  "s_i": 11845,
  "s_{": 11846,
  "se ": 11847,
  "se,": 11848,
  "se.": 11849,
  "se:": 11850,
  "sh ": 11851,
  "si ": 11852,
  "si(": 11853,
  "si_": 11854,
  "sm ": 11855,
  "sm.": 11856,
  "sn'": 11857,
  "so ": 11858,
  "so,": 11859,
  "ss ": 11860,
  "ss,": 11861,
  "ss.": 11862,
  "ss}": 11863,
  "st ": 11864,
  "st,": 11865,
  "st.": 11866,
  "s} ": 11867,
  "s}(": 11868,
  "s})": 11869,
  "s}_": 11870,
  "s}}": 11871,
  "t  ": 11872,
  "t $": 11873,
  "t (": 11874,
  "t 0": 11875,
  "t 1": 11876,
  "t 2": 11877,
  "t 3": 11878,
  "t 4": 11879,
  "t 5": 11880,
  "t =": 11881,
  "t C": 11882,
  "t E": 11883,
  "t G": 11884,
  "t H": 11885,
  "t I": 11886,
  "t K": 11887,
  "t L": 11888,
  "t S": 11889,
  "t T": 11890,
  "t \\": 11891,
  "t a": 11892,
  "t b": 11893,
  "t c": 11894,
  "t d": 11895,
  "t e": 11896,
  "t f": 11897,
  "t g": 11898,
  "t h": 11899,
  "t i": 11900,
  "t k": 11901,
  "t l": 11902,
  "t m": 11903,
  "t n": 11904,
  "t o": 11905,
  "t p": 11906,
  "t q": 11907,
  "t r": 11908,
  "t s": 11909,
  "t t": 11910,
  "t u": 11911,
  "t v": 11912,
  "t w": 11913,
  "t y": 11914,
  "t |": 11915,
  "t's": 11916,
  "t( ": 11917,
  "t(1": 11918,
  "t(\\": 11919,
  "t) ": 11920,
  "t)$": 11921,
  "t),": 11922,
  "t).": 11923,
  "t)^": 11924,
  "t)}": 11925,
  "t**": 11926,
  "t, ": 11927,
  "t. ": 11928,
  "t.*": 11929,
  "t: ": 11930,
  "t\\e": 11931,
  "t\\l": 11932,
  "t\\r": 11933,
  "t^2": 11934,
  "t^{": 11935,
  "t_0": 11936,
  "t_M": 11937,
  "t_X": 11938,
  "t_{": 11939,
  "ta ": 11940,
  "ta$": 11941,
  "ta(": 11942,
  "ta)": 11943,
  "ta,": 11944,
  "ta\\": 11945,
  "ta^": 11946,
  "ta_": 11947,
  "ta}": 11948,
  "te ": 11949,
  "te,": 11950,
  "te-": 11951,
  "te.": 11952,
  "te:": 11953,
  "th ": 11954,
  "th,": 11955,
  "th.": 11956,
  "to ": 11957,
  "to\\": 11958,
  "ts ": 11959,
  "ts)": 11960,
  "ts,": 11961,
  "ts.": 11962,
  "ts:": 11963,
  "ty ": 11964,
  "ty$": 11965,
  "ty)": 11966,
  "ty*": 11967,
  "ty,": 11968,
  "ty.": 11969,
  "ty:": 11970,
  "ty}": 11971,
  "tz ": 11972,
  "t{ ": 11973,
  "t{-": 11974,
  "t{2": 11975,
  "t{A": 11976,
  "t{G": 11977,
  "t{S": 11978,
  "t{T": 11979,
  "t{\\": 11980,
  "t{a": 11981,
  "t{c": 11982,
  "t{d": 11983,
  "t{e": 11984,
  "t{f": 11985,
  "t{i": 11986,
  "t{n": 11987,
  "t{o": 11988,
  "t{p": 11989,
  "t{r": 11990,
  "t{s": 11991,
  "t{t": 11992,
  "t| ": 11993,
  "t} ": 11994,
  "t}(": 11995,
  "t}}": 11996,
  "u $": 11997,
  "u =": 11998,
  "u \\": 11999,
  "u a": 12000,
  "u h": 12001,
  "u m": 12002,
  "u s": 12003,
  "u t": 12004,
  "u w": 12005,
  "u$ ": 12006,
  "u(\\": 12007,
  "u) ": 12008,
  "u, ": 12009,
  "u^2": 12010,
  "u^{": 12011,
  "u_n": 12012,
  "u_{": 12013,
  "ue ": 12014,
  "ue,": 12015,
  "ue.": 12016,
  "ul ": 12017,
  "um ": 12018,
  "um.": 12019,
  "um_": 12020,
  "up ": 12021,
  "up,": 12022,
  "up.": 12023,
  "up_": 12024,
  "ur ": 12025,
  "us ": 12026,
  "us,": 12027,
  "us.": 12028,
  "us_": 12029,
  "ut ": 12030,
  "ut}": 12031,
  "u} ": 12032,
  "u}(": 12033,
  "v -": 12034,
  "v 0": 12035,
  "v 1": 12036,
  "v 2": 12037,
  "v 3": 12038,
  "v =": 12039,
  "v \\": 12040,
  "v) ": 12041,
  "v_p": 12042,
  "ve ": 12043,
  "ve,": 12044,
  "ve.": 12045,
  "ve:": 12046,
  "w $": 12047,
  "w \\": 12048,
  "w a": 12049,
  "w c": 12050,
  "w i": 12051,
  "w s": 12052,
  "w t": 12053,
  "w) ": 12054,
  "w, ": 12055,
  "w_0": 12056,
  "wa ": 12057,
  "we ": 12058,
  "wn ": 12059,
  "wo ": 12060,
  "ws ": 12061,
  "x $": 12062,
  "x +": 12063,
  "x -": 12064,
  "x =": 12065,
  "x \\": 12066,
  "x a": 12067,
  "x c": 12068,
  "x i": 12069,
  "x o": 12070,
  "x s": 12071,
  "x t": 12072,
  "x) ": 12073,
  "x)$": 12074,
  "x)=": 12075,
  "x)^": 12076,
  "x, ": 12077,
  "x,y": 12078,
  "x^2": 12079,
  "x^{": 12080,
  "x_0": 12081,
  "x_1": 12082,
  "x_n": 12083,
  "x_{": 12084,
  "xi)": 12085,
  "xp(": 12086,
  "xp\\": 12087,
  "xt{": 12088,
  "x} ": 12089,
  "x}(": 12090,
  "x}{": 12091,
  "y $": 12092,
  "y (": 12093,
  "y 1": 12094,
  "y =": 12095,
  "y C": 12096,
  "y S": 12097,
  "y \\": 12098,
  "y a": 12099,
  "y b": 12100,
  "y c": 12101,
  "y d": 12102,
  "y e": 12103,
  "y f": 12104,
  "y g": 12105,
  "y h": 12106,
  "y i": 12107,
  "y l": 12108,
  "y m": 12109,
  "y n": 12110,
  "y o": 12111,
  "y p": 12112,
  "y r": 12113,
  "y s": 12114,
  "y t": 12115,
  "y u": 12116,
  "y v": 12117,
  "y w": 12118,
  "y y": 12119,
  "y$ ": 12120,
  "y) ": 12121,
  "y**": 12122,
  "y, ": 12123,
  "y. ": 12124,
  "y.*": 12125,
  "y: ": 12126,
  "y^2": 12127,
  "y^{": 12128,
  "yl ": 12129,
  "ym}": 12130,
  "ys ": 12131,
  "y} ": 12132,
  "z \\": 12133,
  "z) ": 12134,
  "ze ": 12135,
  "{ \\": 12136,
  "{ a": 12137,
  "{ i": 12138,
  "{(1": 12139,
  "{(2": 12140,
  "{(\\": 12141,
  "{(n": 12142,
  "{(p": 12143,
  "{-1": 12144,
  "{-2": 12145,
  "{-\\": 12146,
  "{-s": 12147,
  "{0,": 12148,
  "{0\\": 12149,
  "{0}": 12150,
  "{1 ": 12151,
  "{1,": 12152,
  "{1-": 12153,
  "{1/": 12154,
  "{10": 12155,
  "{11": 12156,
  "{12": 12157,
  "{1}": 12158,
  "{2,": 12159,
  "{20": 12160,
  "{24": 12161,
  "{2\\": 12162,
  "{2^": 12163,
  "{2g": 12164,
  "{2k": 12165,
  "{2m": 12166,
  "{2n": 12167,
  "{2}": 12168,
  "{3/": 12169,
  "{3}": 12170,
  "{4}": 12171,
  "{5}": 12172,
  "{6}": 12173,
  "{8}": 12174,
  "{Au": 12175,
  "{A}": 12176,
  "{B}": 12177,
  "{CP": 12178,
  "{Co": 12179,
  "{C}": 12180,
  "{DT": 12181,
  "{D}": 12182,
  "{E}": 12183,
  "{F}": 12184,
  "{GL": 12185,
  "{Ga": 12186,
  "{Gr": 12187,
  "{G}": 12188,
  "{Ho": 12189,
  "{H}": 12190,
  "{Ir": 12191,
  "{J}": 12192,
  "{K,": 12193,
  "{K}": 12194,
  "{L^": 12195,
  "{L}": 12196,
  "{M}": 12197,
  "{N}": 12198,
  "{O}": 12199,
  "{PS": 12200,
  "{Pi": 12201,
  "{P}": 12202,
  "{Q}": 12203,
  "{Re": 12204,
  "{Ri": 12205,
  "{R}": 12206,
  "{SL": 12207,
  "{Se": 12208,
  "{Sp": 12209,
  "{St": 12210,
  "{Sy": 12211,
  "{S}": 12212,
  "{Th": 12213,
  "{Tr": 12214,
  "{T}": 12215,
  "{U}": 12216,
  "{WP": 12217,
  "{X}": 12218,
  "{Z}": 12219,
  "{\\a": 12220,
  "{\\b": 12221,
  "{\\c": 12222,
  "{\\d": 12223,
  "{\\e": 12224,
  "{\\f": 12225,
  "{\\g": 12226,
  "{\\i": 12227,
  "{\\l": 12228,
  "{\\m": 12229,
  "{\\o": 12230,
  "{\\p": 12231,
  "{\\r": 12232,
  "{\\s": 12233,
  "{\\t": 12234,
  "{\\v": 12235,
  "{a_": 12236,
  "{a}": 12237,
  "{b}": 12238,
  "{c_": 12239,
  "{ca": 12240,
  "{ch": 12241,
  "{co": 12242,
  "{c}": 12243,
  "{d_": 12244,
  "{d}": 12245,
  "{e^": 12246,
  "{e_": 12247,
  "{f}": 12248,
  "{g ": 12249,
  "{g,": 12250,
  "{g-": 12251,
  "{g}": 12252,
  "{h}": 12253,
  "{i,": 12254,
  "{i=": 12255,
  "{ij": 12256,
  "{in": 12257,
  "{i}": 12258,
  "{j=": 12259,
  "{k ": 12260,
  "{k+": 12261,
  "{k-": 12262,
  "{k=": 12263,
  "{k^": 12264,
  "{k}": 12265,
  "{m}": 12266,
  "{n ": 12267,
  "{n!": 12268,
  "{n+": 12269,
  "{n-": 12270,
  "{n=": 12271,
  "{n^": 12272,
  "{n_": 12273,
  "{n}": 12274,
  "{or": 12275,
  "{p ": 12276,
  "{p-": 12277,
  "{p^": 12278,
  "{pm": 12279,
  "{p}": 12280,
  "{q^": 12281,
  "{q}": 12282,
  "{r_": 12283,
  "{ra": 12284,
  "{r}": 12285,
  "{s}": 12286,
  "{t}": 12287,
  "{vo": 12288,
  "{x ": 12289,
  "{x,": 12290,
  "{x^": 12291,
  "{x_": 12292,
  "{x}": 12293,
  "{|G": 12294,
  "{|\\": 12295,
  "| $": 12296,
  "| <": 12297,
  "| =": 12298,
  "| \\": 12299,
  "|$ ": 12300,
  "|G|": 12301,
  "|S|": 12302,
  "|\\l": 12303,
  "|\\m": 12304,
  "|\\n": 12305,
  "|\\o": 12306,
  "|\\t": 12307,
  "|^2": 12308,
  "|^{": 12309,
  "|_{": 12310,
  "|} ": 12311,
  "|}{": 12312,
  "}  ": 12313,
  "} $": 12314,
  "} (": 12315,
  "} +": 12316,
  "} -": 12317,
  "} =": 12318,
  "} H": 12319,
  "} L": 12320,
  "} T": 12321,
  "} \\": 12322,
  "} a": 12323,
  "} b": 12324,
  "} c": 12325,
  "} d": 12326,
  "} e": 12327,
  "} f": 12328,
  "} i": 12329,
  "} n": 12330,
  "} p": 12331,
  "} q": 12332,
  "} s": 12333,
  "} x": 12334,
  "} |": 12335,
  "}$ ": 12336,
  "}$$": 12337,
  "}$,": 12338,
  "}$.": 12339,
  "}(1": 12340,
  "}(2": 12341,
  "}(A": 12342,
  "}(E": 12343,
  "}(G": 12344,
  "}(K": 12345,
  "}(M": 12346,
  "}(P": 12347,
  "}(S": 12348,
  "}(T": 12349,
  "}(X": 12350,
  "}(\\": 12351,
  "}(g": 12352,
  "}(n": 12353,
  "}(q": 12354,
  "}(s": 12355,
  "}(t": 12356,
  "}(x": 12357,
  "}) ": 12358,
  "})$": 12359,
  "}))": 12360,
  "}),": 12361,
  "}).": 12362,
  "})\\": 12363,
  "})^": 12364,
  "})}": 12365,
  "}, ": 12366,
  "},\\": 12367,
  "}. ": 12368,
  "}/2": 12369,
  "}/\\": 12370,
  "}/p": 12371,
  "}: ": 12372,
  "}[\\": 12373,
  "}\\)": 12374,
  "}\\,": 12375,
  "}\\B": 12376,
  "}\\b": 12377,
  "}\\c": 12378,
  "}\\f": 12379,
  "}\\l": 12380,
  "}\\m": 12381,
  "}\\o": 12382,
  "}\\r": 12383,
  "}\\s": 12384,
  "}\\t": 12385,
  "}\\}": 12386,
  "}] ": 12387,
  "}^*": 12388,
  "}^+": 12389,
  "}^1": 12390,
  "}^2": 12391,
  "}^3": 12392,
  "}^\\": 12393,
  "}^k": 12394,
  "}^n": 12395,
  "}^{": 12396,
  "}_0": 12397,
  "}_1": 12398,
  "}_2": 12399,
  "}_3": 12400,
  "}_G": 12401,
  "}_K": 12402,
  "}_X": 12403,
  "}_\\": 12404,
  "}_e": 12405,
  "}_g": 12406,
  "}_i": 12407,
  "}_k": 12408,
  "}_n": 12409,
  "}_p": 12410,
  "}_q": 12411,
  "}_{": 12412,
  "}{(": 12413,
  "}{1": 12414,
  "}{2": 12415,
  "}{3": 12416,
  "}{4": 12417,
  "}{6": 12418,
  "}{8": 12419,
  "}{\\": 12420,
  "}{d": 12421,
  "}{k": 12422,
  "}{m": 12423,
  "}{n": 12424,
  "}{p": 12425,
  "}{|": 12426,
  "}| ": 12427,
  "}|_": 12428,
  "}} ": 12429,
  "}}$": 12430,
  "}}(": 12431,
  "}})": 12432,
  "}},": 12433,
  "}}.": 12434,
  "}}\\": 12435,
  "}}^": 12436,
  "}}_": 12437,
  "}}{": 12438,
  "}}}": 12439,
  " Kä": 12440,
  " — ": 12441,
  "on‑": 12442,
  "t —": 12443,
  "t’s": 12444,
  "’s ": 12445,
  "    ": 12446,
  "   $": 12447,
  "   -": 12448,
  "   =": 12449,
  "   F": 12450,
  "   S": 12451,
  "   T": 12452,
  "   \\": 12453,
  "   i": 12454,
  "  $$": 12455,
  "  **": 12456,
  "  - ": 12457,
  "  By": 12458,
  "  Co": 12459,
  "  Fo": 12460,
  "  He": 12461,
  "  Le": 12462,
  "  Si": 12463,
  "  Th": 12464,
  "  We": 12465,
  "  \\(": 12466,
  "  \\[": 12467,
  "  \\]": 12468,
  "  \\i": 12469,
  "  is": 12470,
  "  it": 12471,
  " $ (": 12472,
  " $ 0": 12473,
  " $ 1": 12474,
  " $ 2": 12475,
  " $ 3": 12476,
  " $ A": 12477,
  " $ C": 12478,
  " $ D": 12479,
  " $ E": 12480,
  " $ F": 12481,
  " $ G": 12482,
  " $ H": 12483,
  " $ K": 12484,
  " $ L": 12485,
  " $ M": 12486,
  " $ N": 12487,
  " $ P": 12488,
  " $ R": 12489,
  " $ S": 12490,
  " $ T": 12491,
  " $ W": 12492,
  " $ X": 12493,
  " $ [": 12494,
  " $ \\": 12495,
  " $ a": 12496,
  " $ b": 12497,
  " $ c": 12498,
  " $ d": 12499,
  " $ e": 12500,
  " $ f": 12501,
  " $ g": 12502,
  " $ h": 12503,
  " $ i": 12504,
  " $ k": 12505,
  " $ m": 12506,
  " $ n": 12507,
  " $ o": 12508,
  " $ p": 12509,
  " $ q": 12510,
  " $ r": 12511,
  " $ s": 12512,
  " $ t": 12513,
  " $ u": 12514,
  " $ v": 12515,
  " $ w": 12516,
  " $ x": 12517,
  " $ |": 12518,
  " $(\\": 12519,
  " $, ": 12520,
  " $-a": 12521,
  " $-f": 12522,
  " $-i": 12523,
  " $-m": 12524,
  " $-t": 12525,
  " $. ": 12526,
  " $.*": 12527,
  " $2$": 12528,
  " $: ": 12529,
  " $A$": 12530,
  " $A_": 12531,
  " $C_": 12532,
  " $E$": 12533,
  " $E_": 12534,
  " $G ": 12535,
  " $G$": 12536,
  " $G_": 12537,
  " $H$": 12538,
  " $H^": 12539,
  " $H_": 12540,
  " $K$": 12541,
  " $K_": 12542,
  " $L$": 12543,
  " $L(": 12544,
  " $L_": 12545,
  " $M$": 12546,
  " $M_": 12547,
  " $N$": 12548,
  " $N_": 12549,
  " $P(": 12550,
  " $P_": 12551,
  " $S$": 12552,
  " $S^": 12553,
  " $S_": 12554,
  " $T$": 12555,
  " $X$": 12556,
  " $X_": 12557,
  " $\\D": 12558,
  " $\\G": 12559,
  " $\\P": 12560,
  " $\\a": 12561,
  " $\\b": 12562,
  " $\\c": 12563,
  " $\\d": 12564,
  " $\\e": 12565,
  " $\\f": 12566,
  " $\\g": 12567,
  " $\\i": 12568,
  " $\\l": 12569,
  " $\\m": 12570,
  " $\\o": 12571,
  " $\\p": 12572,
  " $\\r": 12573,
  " $\\s": 12574,
  " $\\t": 12575,
  " $\\{": 12576,
  " $a ": 12577,
  " $a_": 12578,
  " $b_": 12579,
  " $c_": 12580,
  " $d$": 12581,
  " $d_": 12582,
  " $f$": 12583,
  " $f(": 12584,
  " $g ": 12585,
  " $g$": 12586,
  " $k ": 12587,
  " $k$": 12588,
  " $m$": 12589,
  " $n ": 12590,
  " $n$": 12591,
  " $p ": 12592,
  " $p$": 12593,
  " $p^": 12594,
  " $q$": 12595,
  " $x ": 12596,
  " $|G": 12597,
  " $|\\": 12598,
  " & \\": 12599,
  " (-1": 12600,
  " (0,": 12601,
  " (1 ": 12602,
  " (1,": 12603,
  " (\\l": 12604,
  " (\\m": 12605,
  " (by": 12606,
  " (i.": 12607,
  " (in": 12608,
  " (n-": 12609,
  " (si": 12610,
  " (th": 12611,
  " (wh": 12612,
  " **C": 12613,
  " + (": 12614,
  " + 1": 12615,
  " + 2": 12616,
  " + 3": 12617,
  " + 4": 12618,
  " + O": 12619,
  " + \\": 12620,
  " + a": 12621,
  " + b": 12622,
  " + c": 12623,
  " + n": 12624,
  " + o": 12625,
  " + p": 12626,
  " + q": 12627,
  " + x": 12628,
  " + y": 12629,
  " - (": 12630,
  " - 1": 12631,
  " - 2": 12632,
  " - 3": 12633,
  " - 4": 12634,
  " - T": 12635,
  " - \\": 12636,
  " - a": 12637,
  " - p": 12638,
  " - q": 12639,
  " - x": 12640,
  " -1 ": 12641,
  " -\\f": 12642,
  " / \\": 12643,
  " 0 $": 12644,
  " 0 &": 12645,
  " 0 \\": 12646,
  " 0$ ": 12647,
  " 0$,": 12648,
  " 0$.": 12649,
  " 0, ": 12650,
  " 0\\)": 12651,
  " 0} ": 12652,
  " 1 $": 12653,
  " 1 +": 12654,
  " 1 -": 12655,
  " 1 =": 12656,
  " 1 \\": 12657,
  " 1$ ": 12658,
  " 1$,": 12659,
  " 1$.": 12660,
  " 1) ": 12661,
  " 1, ": 12662,
  " 1. ": 12663,
  " 1/2": 12664,
  " 10 ": 12665,
  " 100": 12666,
  " 10:": 12667,
  " 10^": 12668,
  " 11:": 12669,
  " 12:": 12670,
  " 13:": 12671,
  " 14:": 12672,
  " 15:": 12673,
  " 16:": 12674,
  " 17:": 12675,
  " 18:": 12676,
  " 19:": 12677,
  " 1: ": 12678,
  " 1} ": 12679,
  " 1}{": 12680,
  " 2 $": 12681,
  " 2 +": 12682,
  " 2 \\": 12683,
  " 2$,": 12684,
  " 2$.": 12685,
  " 2, ": 12686,
  " 2. ": 12687,
  " 202": 12688,
  " 20:": 12689,
  " 21:": 12690,
  " 22:": 12691,
  " 23:": 12692,
  " 24:": 12693,
  " 25:": 12694,
  " 26:": 12695,
  " 27:": 12696,
  " 28:": 12697,
  " 29:": 12698,
  " 2: ": 12699,
  " 2\\p": 12700,
  " 2^{": 12701,
  " 3 $": 12702,
  " 3 \\": 12703,
  " 3, ": 12704,
  " 30:": 12705,
  " 31:": 12706,
  " 32:": 12707,
  " 33:": 12708,
  " 34:": 12709,
  " 35:": 12710,
  " 3: ": 12711,
  " 4 $": 12712,
  " 4 \\": 12713,
  " 4-m": 12714,
  " 4: ": 12715,
  " 5 \\": 12716,
  " 5: ": 12717,
  " 6: ": 12718,
  " 7: ": 12719,
  " 8: ": 12720,
  " 9: ": 12721,
  " : \\": 12722,
  " < 1": 12723,
  " < \\": 12724,
  " = (": 12725,
  " = -": 12726,
  " = 0": 12727,
  " = 1": 12728,
  " = 2": 12729,
  " = 3": 12730,
  " = 4": 12731,
  " = 5": 12732,
  " = 6": 12733,
  " = 7": 12734,
  " = 8": 12735,
  " = 9": 12736,
  " = A": 12737,
  " = C": 12738,
  " = G": 12739,
  " = I": 12740,
  " = S": 12741,
  " = T": 12742,
  " = [": 12743,
  " = \\": 12744,
  " = a": 12745,
  " = b": 12746,
  " = c": 12747,
  " = d": 12748,
  " = e": 12749,
  " = f": 12750,
  " = g": 12751,
  " = k": 12752,
  " = m": 12753,
  " = n": 12754,
  " = p": 12755,
  " = q": 12756,
  " = r": 12757,
  " = s": 12758,
  " = x": 12759,
  " = |": 12760,
  " > 0": 12761,
  " > 1": 12762,
  " A $": 12763,
  " A \\": 12764,
  " Act": 12765,
  " Ana": 12766,
  " App": 12767,
  " Ass": 12768,
  " B \\": 12769,
  " Ber": 12770,
  " Bor": 12771,
  " Bou": 12772,
  " But": 12773,
  " By ": 12774,
  " C \\": 12775,
  " CM ": 12776,
  " C_2": 12777,
  " C_{": 12778,
  " Cal": 12779,
  " Car": 12780,
  " Cas": 12781,
  " Cha": 12782,
  " Che": 12783,
  " Cla": 12784,
  " Com": 12785,
  " Con": 12786,
  " Cor": 12787,
  " Cou": 12788,
  " Cur": 12789,
  " Def": 12790,
  " Det": 12791,
  " Dir": 12792,
  " E \\": 12793,
  " Ele": 12794,
  " Equ": 12795,
  " Est": 12796,
  " Eul": 12797,
  " Exp": 12798,
  " Fin": 12799,
  " For": 12800,
  " Fou": 12801,
  " Fre": 12802,
  " Fro": 12803,
  " Fur": 12804,
  " G $": 12805,
  " G =": 12806,
  " G \\": 12807,
  " G(\\": 12808,
  " Gal": 12809,
  " Gau": 12810,
  " Gen": 12811,
  " Gro": 12812,
  " G} ": 12813,
  " H $": 12814,
  " H \\": 12815,
  " H^0": 12816,
  " H^1": 12817,
  " H^2": 12818,
  " H^{": 12819,
  " Hec": 12820,
  " Hen": 12821,
  " Her": 12822,
  " Hil": 12823,
  " Hod": 12824,
  " How": 12825,
  " I a": 12826,
  " I h": 12827,
  " I s": 12828,
  " I w": 12829,
  " Ide": 12830,
  " If ": 12831,
  " In ": 12832,
  " Ind": 12833,
  " Int": 12834,
  " It ": 12835,
  " Its": 12836,
  " Iwa": 12837,
  " Jac": 12838,
  " K $": 12839,
  " K \\": 12840,
  " K_0": 12841,
  " K_{": 12842,
  " L $": 12843,
  " L \\": 12844,
  " L(s": 12845,
  " L^2": 12846,
  " L_p": 12847,
  " Lan": 12848,
  " Law": 12849,
  " Lef": 12850,
  " Let": 12851,
  " Lie": 12852,
  " M $": 12853,
  " M \\": 12854,
  " Mod": 12855,
  " Mor": 12856,
  " N $": 12857,
  " N \\": 12858,
  " N(\\": 12859,
  " Not": 12860,
  " P \\": 12861,
  " P_{": 12862,
  " Par": 12863,
  " Per": 12864,
  " Poi": 12865,
  " Pre": 12866,
  " Pro": 12867,
  " Ref": 12868,
  " Rel": 12869,
  " Res": 12870,
  " Ric": 12871,
  " Rie": 12872,
  " S $": 12873,
  " S \\": 12874,
  " S^1": 12875,
  " S^2": 12876,
  " S_n": 12877,
  " Sat": 12878,
  " Sch": 12879,
  " Sei": 12880,
  " Sel": 12881,
  " Set": 12882,
  " Sim": 12883,
  " Sin": 12884,
  " So ": 12885,
  " Spe": 12886,
[...]
